<unk>	0
<s>	0
</s>	0
an	-0
▁m	-1
ak	-2
er	-3
▁s	-4
▁b	-5
en	-6
▁t	-7
ah	-8
ang	-9
in	-10
▁k	-11
ar	-12
▁d	-13
ya	-14
am	-15
▁A	-16
at	-17
▁T	-18
▁p	-19
ku	-20
al	-21
em	-22
▁To	-23
▁Tom	-24
▁men	-25
un	-26
el	-27
tu	-28
id	-29
ap	-30
▁di	-31
kan	-32
▁Aku	-33
idak	-34
as	-35
▁se	-36
ad	-37
▁tidak	-38
▁ber	-39
▁K	-40
▁S	-41
akan	-42
▁mem	-43
ing	-44
▁l	-45
▁y	-46
aya	-47
is	-48
amu	-49
▁yang	-50
nya	-51
ik	-52
▁h	-53
aku	-54
▁ke	-55
▁i	-56
gi	-57
ini	-58
ih	-59
apa	-60
▁per	-61
▁M	-62
▁D	-63
ia	-64
au	-65
▁itu	-66
it	-67
us	-68
▁ter	-69
uk	-70
ari	-71
eng	-72
il	-73
um	-74
ur	-75
▁ini	-76
ada	-77
▁meng	-78
▁Ap	-79
▁B	-80
or	-81
▁memb	-82
▁kamu	-83
on	-84
ai	-85
▁Saya	-86
▁Dia	-87
ir	-88
▁I	-89
ek	-90
ul	-91
▁akan	-92
da	-93
alah	-94
mu	-95
ung	-96
▁j	-97
▁mel	-98
▁tah	-99
▁r	-100
engan	-101
eb	-102
anya	-103
▁dengan	-104
ud	-105
isa	-106
ana	-107
▁bisa	-108
orang	-109
▁aku	-110
ti	-111
es	-112
ol	-113
akah	-114
ingin	-115
▁P	-116
ita	-117
ja	-118
ami	-119
▁saya	-120
uka	-121
tuk	-122
▁Apa	-123
unya	-124
ga	-125
▁un	-126
▁Mar	-127
▁Kamu	-128
▁untuk	-129
angan	-130
▁Mary	-131
ep	-132
et	-133
emu	-134
▁ingin	-135
ali	-136
▁bu	-137
▁tahu	-138
▁apa	-139
▁c	-140
akukan	-141
▁ad	-142
▁ada	-143
asa	-144
▁An	-145
▁pergi	-146
▁har	-147
ihat	-148
udah	-149
▁J	-150
▁Apakah	-151
alam	-152
ama	-153
▁In	-154
▁ba	-155
▁adalah	-156
▁dari	-157
ara	-158
ok	-159
▁mer	-160
▁sed	-161
▁dia	-162
▁suka	-163
atu	-164
ob	-165
bu	-166
adi	-167
alu	-168
ong	-169
▁dan	-170
▁harus	-171
agi	-172
wa	-173
▁Anda	-174
▁makan	-175
ingg	-176
angat	-177
▁sudah	-178
▁bah	-179
eri	-180
▁sek	-181
inya	-182
ebih	-183
ta	-184
▁Ini	-185
▁n	-186
▁mas	-187
eka	-188
▁ban	-189
▁bel	-190
▁meny	-191
▁kau	-192
▁lebih	-193
▁sedang	-194
▁g	-195
▁punya	-196
per	-197
▁sangat	-198
▁melakukan	-199
▁orang	-200
▁Kami	-201
▁terl	-202
▁kita	-203
ut	-204
elah	-205
ma	-206
amp	-207
yak	-208
uh	-209
ac	-210
▁mana	-211
enar	-212
▁sel	-213
up	-214
inggal	-215
umah	-216
emb	-217
▁an	-218
▁sa	-219
▁Itu	-220
▁si	-221
uku	-222
▁sini	-223
end	-224
▁dalam	-225
eh	-226
▁menc	-227
▁melihat	-228
aj	-229
▁berb	-230
ati	-231
nah	-232
ag	-233
jadi	-234
ab	-235
▁banyak	-236
ent	-237
lah	-238
▁lagi	-239
▁seb	-240
▁bert	-241
▁pada	-242
os	-243
▁pernah	-244
▁ti	-245
▁H	-246
annya	-247
emua	-248
erja	-249
▁rumah	-250
▁hari	-251
▁Tidak	-252
apat	-253
▁mend	-254
▁bers	-255
▁bukan	-256
ika	-257
enang	-258
▁w	-259
▁membu	-260
▁seorang	-261
▁Jangan	-262
ant	-263
emp	-264
ay	-265
asi	-266
ekerja	-267
ot	-268
▁Mer	-269
▁tahun	-270
iri	-271
arang	-272
ic	-273
ua	-274
▁mau	-275
▁Mereka	-276
amb	-277
ilik	-278
obil	-279
▁telah	-280
ikir	-281
▁Kita	-282
uar	-283
kat	-284
▁kami	-285
apan	-286
▁masih	-287
aw	-288
▁ses	-289
atang	-290
uc	-291
aki	-292
▁baik	-293
▁saja	-294
oleh	-295
▁sep	-296
oh	-297
▁belum	-298
erapa	-299
▁bahasa	-300
ju	-301
ri	-302
ajar	-303
▁benar	-304
anc	-305
▁Ada	-306
▁hal	-307
aik	-308
▁at	-309
ungk	-310
▁mobil	-311
eli	-312
ungg	-313
▁kel	-314
▁kem	-315
alan	-316
alau	-317
▁kep	-318
▁L	-319
int	-320
▁tinggal	-321
▁kali	-322
▁bar	-323
ungkin	-324
lu	-325
si	-326
▁Kau	-327
▁Di	-328
mana	-329
▁bes	-330
▁seper	-331
▁R	-332
ton	-333
▁ko	-334
engar	-335
icara	-336
▁buku	-337
▁pad	-338
▁datang	-339
▁wak	-340
▁satu	-341
▁tiga	-342
▁ap	-343
long	-344
main	-345
▁ker	-346
and	-347
idur	-348
uatu	-349
▁Tolong	-350
buah	-351
ain	-352
kah	-353
▁berh	-354
▁membeli	-355
angg	-356
▁min	-357
ulang	-358
▁sebuah	-359
aca	-360
▁pen	-361
▁terb	-362
▁anak	-363
atakan	-364
uang	-365
iliki	-366
▁bahwa	-367
▁waktu	-368
▁mereka	-369
▁membuat	-370
▁semua	-371
tuh	-372
eman	-373
▁send	-374
▁memiliki	-375
ed	-376
uj	-377
ulai	-378
▁seperti	-379
▁kec	-380
▁mengh	-381
▁sesuatu	-382
ahu	-383
▁perlu	-384
▁tidur	-385
▁baru	-386
▁menjadi	-387
▁terlalu	-388
epat	-389
▁sendiri	-390
▁Si	-391
▁Pr	-392
aimana	-393
ind	-394
▁Per	-395
tr	-396
▁bermain	-397
idup	-398
▁berbicara	-399
ub	-400
▁tent	-401
▁pikir	-402
▁sekali	-403
om	-404
▁kalau	-405
anj	-406
▁kes	-407
unggu	-408
embali	-409
▁salah	-410
eg	-411
antu	-412
olah	-413
▁terjadi	-414
▁f	-415
api	-416
enc	-417
akit	-418
enapa	-419
▁lakukan	-420
▁ju	-421
ilang	-422
kannya	-423
▁minum	-424
▁tentang	-425
hir	-426
arah	-427
asih	-428
isi	-429
▁Siapa	-430
▁berapa	-431
im	-432
ancis	-433
▁uang	-434
▁mus	-435
▁siapa	-436
▁terlihat	-437
af	-438
ena	-439
▁ket	-440
▁Bos	-441
▁bag	-442
erima	-443
▁malam	-444
▁Boston	-445
▁memper	-446
▁selalu	-447
▁belajar	-448
▁sekarang	-449
▁melakukannya	-450
▁O	-451
anmu	-452
caya	-453
▁jam	-454
▁kar	-455
▁membantu	-456
arin	-457
▁juga	-458
▁bekerja	-459
▁kembali	-460
▁membaca	-461
▁mendengar	-462
▁N	-463
enti	-464
erit	-465
empat	-466
▁Prancis	-467
utu	-468
▁mulai	-469
▁seh	-470
▁sem	-471
ampai	-472
▁atas	-473
▁memberi	-474
▁bi	-475
aran	-476
▁sana	-477
▁sakit	-478
akin	-479
▁hanya	-480
▁teman	-481
op	-482
inta	-483
▁Mari	-484
▁sama	-485
▁bertemu	-486
oba	-487
▁kam	-488
akhir	-489
eberapa	-490
▁keb	-491
▁ters	-492
▁dapat	-493
▁G	-494
▁lalu	-495
▁Kenapa	-496
ata	-497
▁dib	-498
▁hidup	-499
▁merasa	-500
▁mungkin	-501
▁meninggal	-502
uduk	-503
▁lama	-504
▁pert	-505
▁Semua	-506
▁C	-507
pada	-508
▁Bag	-509
▁ser	-510
▁daripada	-511
▁menunggu	-512
esai	-513
▁tel	-514
▁tet	-515
▁masalah	-516
▁Bagaimana	-517
elum	-518
ulis	-519
▁pun	-520
ucing	-521
emukan	-522
▁keluar	-523
yi	-524
▁mengg	-525
gr	-526
tiap	-527
▁dep	-528
▁pulang	-529
uru	-530
kata	-531
▁besar	-532
▁kalian	-533
▁sekolah	-534
akut	-535
usnya	-536
▁pekerja	-537
▁diri	-538
▁kasih	-539
▁bilang	-540
▁menang	-541
▁tangan	-542
▁mati	-543
▁sampai	-544
▁kemarin	-545
▁sebelum	-546
eda	-547
era	-548
▁Ay	-549
▁gi	-550
enal	-551
▁saat	-552
ew	-553
ian	-554
atan	-555
angun	-556
▁"	-557
akai	-558
arkan	-559
▁berd	-560
▁Kapan	-561
▁depan	-562
▁duduk	-563
na	-564
aaf	-565
awa	-566
jing	-567
ukai	-568
▁Ing	-569
▁dua	-570
▁keh	-571
▁berp	-572
▁selama	-573
▁tert	-574
▁jalan	-575
▁kamar	-576
▁karena	-577
angk	-578
ingat	-579
▁pagi	-580
▁yakin	-581
▁memberit	-582
pi	-583
ter	-584
awat	-585
ukul	-586
▁Bis	-587
benar	-588
▁lain	-589
▁terk	-590
▁Sudah	-591
eja	-592
jam	-593
unj	-594
unia	-595
▁tan	-596
aling	-597
ist	-598
ukup	-599
▁pan	-600
epang	-601
inggi	-602
▁besok	-603
▁setiap	-604
air	-605
auh	-606
epon	-607
ulan	-608
ambil	-609
inggu	-610
jalan	-611
ec	-612
alia	-613
gris	-614
▁cukup	-615
▁Berapa	-616
▁Jepang	-617
▁tempat	-618
▁Bisakah	-619
▁Inggris	-620
▁berkata	-621
▁menemukan	-622
aan	-623
uan	-624
▁pas	-625
▁Boleh	-626
▁kepada	-627
▁senang	-628
▁berhenti	-629
▁ku	-630
amat	-631
uluh	-632
unuh	-633
▁air	-634
▁kan	-635
▁lup	-636
▁kota	-637
▁mencoba	-638
▁beberapa	-639
ej	-640
▁U	-641
arik	-642
ekor	-643
urun	-644
▁pin	-645
ahasa	-646
▁dunia	-647
▁kecil	-648
tinya	-649
▁laki	-650
▁panas	-651
arusnya	-652
▁sering	-653
▁ay	-654
ujan	-655
usah	-656
▁Ber	-657
▁tak	-658
ampir	-659
▁Meng	-660
uangan	-661
unakan	-662
▁berada	-663
▁kucing	-664
▁katakan	-665
ba	-666
od	-667
ulu	-668
▁as	-669
▁en	-670
okok	-671
ukan	-672
ustr	-673
▁sur	-674
ahkan	-675
▁berl	-676
angkat	-677
▁mengi	-678
▁pukul	-679
emuanya	-680
▁padaku	-681
▁berenang	-682
▁2	-683
▁ia	-684
baik	-685
elas	-686
ulit	-687
uran	-688
▁lap	-689
▁seg	-690
ambat	-691
▁ayah	-692
▁takut	-693
▁mengatakan	-694
tasi	-695
▁dim	-696
▁pes	-697
▁luar	-698
▁peng	-699
▁Austr	-700
▁bagus	-701
▁Australia	-702
buk	-703
eta	-704
umu	-705
abis	-706
▁neg	-707
▁tua	-708
antai	-709
▁Rumah	-710
▁menya	-711
▁menger	-712
▁bersama	-713
▁mu	-714
▁angg	-715
▁lupa	-716
eorang	-717
▁butuh	-718
▁Mengapa	-719
▁makanan	-720
ahui	-721
anak	-722
apun	-723
laki	-724
▁pel	-725
okter	-726
▁atau	-727
▁percaya	-728
pa	-729
egi	-730
anti	-731
ikit	-732
kanku	-733
ohong	-734
▁masuk	-735
▁Terima	-736
▁sedikit	-737
▁1	-738
atuh	-739
ubah	-740
▁menulis	-741
ci	-742
▁pr	-743
iswa	-744
ungi	-745
▁Sep	-746
▁pem	-747
▁set	-748
▁berk	-749
anjang	-750
tasiun	-751
▁milik	-752
▁tetapi	-753
▁E	-754
but	-755
▁li	-756
ebut	-757
▁Anak	-758
▁Ayah	-759
▁boleh	-760
▁bulan	-761
▁sibuk	-762
▁padamu	-763
▁merokok	-764
aman	-765
arna	-766
kanmu	-767
▁jauh	-768
asanya	-769
▁anjing	-770
▁menyel	-771
▁denganmu	-772
aks	-773
buat	-774
usia	-775
▁baw	-776
▁mat	-777
olong	-778
unung	-779
▁Kali	-780
▁berg	-781
▁cara	-782
▁meja	-783
▁cepat	-784
▁harap	-785
▁hujan	-786
▁siang	-787
▁surat	-788
▁mencari	-789
▁menangis	-790
▁pekerjaan	-791
ra	-792
uri	-793
▁tu	-794
asil	-795
awab	-796
utup	-797
▁dis	-798
▁Buku	-799
▁merah	-800
▁menyukai	-801
ikah	-802
▁Sel	-803
egitu	-804
▁jika	-805
▁hampir	-806
▁ketika	-807
▁peremp	-808
▁Mungkin	-809
▁membutuh	-810
▁seharusnya	-811
▁Am	-812
acar	-813
ekat	-814
ilih	-815
▁bur	-816
indah	-817
onton	-818
▁tiba	-819
amanya	-820
▁bawah	-821
▁dokter	-822
▁tinggi	-823
▁mendapat	-824
iku	-825
▁Ia	-826
buku	-827
enis	-828
rang	-829
utus	-830
▁bagi	-831
▁pend	-832
▁marah	-833
▁pasti	-834
▁tepat	-835
▁turun	-836
esaikan	-837
▁paling	-838
▁mengambil	-839
▁terlambat	-840
▁Y	-841
▁ag	-842
tuju	-843
▁mah	-844
antik	-845
▁muda	-846
▁rasa	-847
enting	-848
▁lapar	-849
▁begitu	-850
▁kereta	-851
▁al	-852
anku	-853
otak	-854
▁cer	-855
▁dip	-856
▁ked	-857
▁kon	-858
▁man	-859
▁sej	-860
angga	-861
entar	-862
▁anda	-863
▁pint	-864
▁bantu	-865
▁pintu	-866
▁Kalian	-867
▁dingin	-868
▁penting	-869
▁ruangan	-870
▁tersebut	-871
▁perempuan	-872
la	-873
ikan	-874
ohon	-875
▁apel	-876
▁oleh	-877
▁musim	-878
▁pacar	-879
▁seekor	-880
▁kesalah	-881
anda	-882
bang	-883
▁dit	-884
unjuk	-885
▁Hari	-886
▁musik	-887
▁anggur	-888
▁bangun	-889
▁berpikir	-890
▁menggunakan	-891
▁Seb	-892
▁kur	-893
▁sen	-894
akaan	-895
ambut	-896
▁kepad	-897
▁keras	-898
▁menget	-899
▁setuju	-900
▁memakan	-901
▁bersalah	-902
▁menonton	-903
▁berbohong	-904
ilm	-905
▁Bi	-906
▁Sek	-907
▁bir	-908
▁ist	-909
▁berc	-910
▁guru	-911
▁kopi	-912
encana	-913
▁minggu	-914
▁memberitah	-915
ira	-916
orm	-917
pun	-918
tah	-919
tar	-920
uli	-921
▁ya	-922
enci	-923
hati	-924
unga	-925
urut	-926
▁put	-927
elepon	-928
▁Orang	-929
ilangan	-930
▁segera	-931
▁memakai	-932
▁menikah	-933
▁Bolehkah	-934
mp	-935
sa	-936
dara	-937
erah	-938
▁Kem	-939
▁dil	-940
▁kak	-941
▁sec	-942
▁Beri	-943
▁Maaf	-944
▁siap	-945
anyaan	-946
atunya	-947
▁memas	-948
▁menit	-949
▁siswa	-950
▁sulit	-951
▁tanpa	-952
▁menyeb	-953
▁sepeda	-954
▁mengerti	-955
▁semuanya	-956
▁bagaimana	-957
▁melihatnya	-958
▁membutuhkan	-959
▁F	-960
▁W	-961
ala	-962
▁ga	-963
▁su	-964
▁Sil	-965
▁dir	-966
▁mur	-967
ayang	-968
▁dulu	-969
▁nama	-970
▁tadi	-971
▁Kalau	-972
▁jawab	-973
▁ulang	-974
▁Bahasa	-975
▁apakah	-976
▁apapun	-977
▁cantik	-978
▁meminta	-979
▁selesai	-980
▁berjalan	-981
▁membunuh	-982
▁berangkat	-983
▁kehilangan	-984
ola	-985
ampu	-986
unyi	-987
ganya	-988
hawat	-989
otong	-990
▁akhir	-991
▁ingat	-992
▁puluh	-993
hawatir	-994
▁stasiun	-995
▁sebentar	-996
▁memberitahu	-997
."	-998
ers	-999
agia	-1000
ahir	-1001
anyi	-1002
jual	-1003
odoh	-1004
▁kab	-1005
▁sar	-1006
ungai	-1007
▁memp	-1008
▁tapi	-1009
ingung	-1010
▁berat	-1011
▁dekat	-1012
▁memer	-1013
enarnya	-1014
satunya	-1015
▁bahagia	-1016
▁berubah	-1017
▁menarik	-1018
▁padanya	-1019
▁Sekarang	-1020
▁bertanya	-1021
▁biasanya	-1022
▁terakhir	-1023
▁menelepon	-1024
▁menyelesaikan	-1025
ev	-1026
rim	-1027
▁Ok	-1028
▁aw	-1029
▁Mau	-1030
▁ped	-1031
anjut	-1032
erang	-1033
erika	-1034
▁Jika	-1035
▁adik	-1036
▁enam	-1037
▁kata	-1038
▁kelas	-1039
▁memin	-1040
embunyi	-1041
▁Amerika	-1042
▁Silakan	-1043
▁sebelumnya	-1044
▁mendengarkan	-1045
00	-1046
ov	-1047
omp	-1048
▁ak	-1049
▁gar	-1050
usaha	-1051
▁awal	-1052
▁kant	-1053
upakan	-1054
▁cinta	-1055
▁diper	-1056
▁lahir	-1057
▁putih	-1058
▁jangan	-1059
▁lantai	-1060
▁setelah	-1061
▁dengannya	-1062
▁pertanyaan	-1063
agu	-1064
uci	-1065
▁Ke	-1066
ahan	-1067
▁Sen	-1068
▁Ter	-1069
▁kos	-1070
▁nya	-1071
▁sus	-1072
ingga	-1073
jakan	-1074
▁bern	-1075
▁film	-1076
aiknya	-1077
enakan	-1078
▁Seper	-1079
▁lelah	-1080
▁menja	-1081
▁mudah	-1082
▁pohon	-1083
▁tetap	-1084
abiskan	-1085
▁negeri	-1086
▁Selamat	-1087
▁telepon	-1088
▁tertarik	-1089
▁kesalahan	-1090
▁membuatku	-1091
▁seseorang	-1092
▁mengetahui	-1093
ide	-1094
ium	-1095
unt	-1096
asan	-1097
atur	-1098
ayar	-1099
etak	-1100
▁Ker	-1101
▁Men	-1102
ajari	-1103
apkan	-1104
olisi	-1105
▁berj	-1106
▁ikan	-1107
▁keti	-1108
▁radi	-1109
▁buruk	-1110
▁jatuh	-1111
▁lihat	-1112
▁nanti	-1113
▁terta	-1114
▁terus	-1115
▁pertama	-1116
▁sepuluh	-1117
▁bercanda	-1118
▁menerima	-1119
▁mengenal	-1120
▁sendirian	-1121
aat	-1122
bur	-1123
und	-1124
▁so	-1125
▁um	-1126
abuk	-1127
arga	-1128
itar	-1129
ober	-1130
▁kun	-1131
▁pis	-1132
▁sal	-1133
warna	-1134
▁aneh	-1135
▁gila	-1136
▁lang	-1137
▁terh	-1138
elapan	-1139
urutmu	-1140
▁indah	-1141
▁mahal	-1142
▁tenis	-1143
▁kosong	-1144
▁berlari	-1145
▁berhasil	-1146
▁berusaha	-1147
▁berwarna	-1148
▁meminjam	-1149
▁mengajar	-1150
▁pintunya	-1151
▁mempercaya	-1152
▁sebenarnya	-1153
aba	-1154
aja	-1155
oko	-1156
tas	-1157
▁20	-1158
ekan	-1159
emud	-1160
iasa	-1161
ilah	-1162
▁Air	-1163
▁Kan	-1164
▁Okt	-1165
▁hit	-1166
adang	-1167
amaku	-1168
▁enak	-1169
▁menj	-1170
▁seri	-1171
aranya	-1172
▁bodoh	-1173
▁istri	-1174
▁radio	-1175
▁Kanada	-1176
▁bicara	-1177
▁hingga	-1178
▁sehari	-1179
unjukkan	-1180
▁Oktober	-1181
▁berteri	-1182
▁mencuri	-1183
▁sekitar	-1184
▁terbaik	-1185
▁terkenal	-1186
▁berbahasa	-1187
▁mengingat	-1188
▁Sepertinya	-1189
▁menghabiskan	-1190
▁meninggalkan	-1191
av	-1192
ip	-1193
▁v	-1194
imu	-1195
wab	-1196
▁ar	-1197
emat	-1198
oran	-1199
osan	-1200
▁bad	-1201
▁kul	-1202
empur	-1203
intas	-1204
▁Yang	-1205
▁kira	-1206
▁Bukan	-1207
▁benci	-1208
▁kabar	-1209
▁mabuk	-1210
▁pakai	-1211
elakaan	-1212
▁berdua	-1213
▁memang	-1214
▁secara	-1215
▁mengunj	-1216
▁tertawa	-1217
▁berteriak	-1218
gil	-1219
mas	-1220
▁Ti	-1221
▁in	-1222
ayan	-1223
ejut	-1224
engk	-1225
epas	-1226
kuti	-1227
orit	-1228
ovel	-1229
uruh	-1230
▁Ayo	-1231
▁Hal	-1232
▁gel	-1233
ambar	-1234
angka	-1235
eluar	-1236
▁naik	-1237
▁toko	-1238
arakan	-1239
▁Mobil	-1240
▁Senin	-1241
▁kakak	-1242
▁minta	-1243
▁rapat	-1244
▁gunung	-1245
▁peduli	-1246
▁sungai	-1247
▁sepanjang	-1248
▁mengenakan	-1249
▁mendapatkan	-1250
▁mengunjungi	-1251
ki	-1252
eny	-1253
oto	-1254
ump	-1255
▁TV	-1256
▁ib	-1257
▁ng	-1258
alas	-1259
arap	-1260
asia	-1261
otel	-1262
ukis	-1263
▁dih	-1264
▁sau	-1265
mbang	-1266
yanyi	-1267
▁jadi	-1268
▁kaki	-1269
▁maaf	-1270
▁mand	-1271
▁pemb	-1272
▁situ	-1273
▁susu	-1274
▁terd	-1275
alanya	-1276
asaran	-1277
▁Lihat	-1278
▁kapan	-1279
▁pesta	-1280
▁Anjing	-1281
▁Kucing	-1282
▁mengec	-1283
▁rambut	-1284
▁tolong	-1285
▁menjual	-1286
▁namanya	-1287
▁semalam	-1288
▁Semuanya	-1289
▁denganku	-1290
▁memberitahuku	-1291
ani	-1292
bat	-1293
ewa	-1294
kut	-1295
las	-1296
man	-1297
ula	-1298
▁Ad	-1299
acet	-1300
adap	-1301
agai	-1302
ukur	-1303
▁Ban	-1304
▁Kur	-1305
▁bac	-1306
▁dik	-1307
▁fav	-1308
▁pah	-1309
▁rus	-1310
ancar	-1311
baiki	-1312
endel	-1313
evisi	-1314
ihkan	-1315
intai	-1316
yakan	-1317
▁agak	-1318
▁biru	-1319
▁bola	-1320
▁hati	-1321
▁pand	-1322
▁pria	-1323
▁terj	-1324
intang	-1325
▁bunga	-1326
▁murah	-1327
▁pilih	-1328
▁tahan	-1329
▁taman	-1330
▁tangg	-1331
▁Ayahku	-1332
▁kantor	-1333
▁negara	-1334
▁serius	-1335
enangkan	-1336
icarakan	-1337
▁berikan	-1338
▁favorit	-1339
▁membuka	-1340
▁mengapa	-1341
▁sarapan	-1342
▁membayar	-1343
▁menjawab	-1344
▁terbiasa	-1345
30	-1346
buh	-1347
eks	-1348
uju	-1349
unc	-1350
▁Se	-1351
▁Un	-1352
awar	-1353
▁Mas	-1354
▁bis	-1355
▁dol	-1356
▁rah	-1357
aksud	-1358
▁beli	-1359
▁buah	-1360
▁gigi	-1361
▁mampu	-1362
▁memah	-1363
▁membi	-1364
▁sejak	-1365
▁tutup	-1366
utuskan	-1367
▁barang	-1368
▁jendel	-1369
▁kertas	-1370
▁menyad	-1371
▁saling	-1372
▁sepatu	-1373
▁berdiri	-1374
▁delapan	-1375
▁dirinya	-1376
▁memasak	-1377
▁terbuat	-1378
▁khawatir	-1379
▁menyerah	-1380
▁mobilnya	-1381
▁kecelakaan	-1382
▁sepertinya	-1383
▁menyeberang	-1384
ohn	-1385
tik	-1386
▁cu	-1387
▁es	-1388
▁ro	-1389
adis	-1390
akar	-1391
▁Ses	-1392
▁Tok	-1393
▁bas	-1394
▁dag	-1395
▁dic	-1396
▁ide	-1397
▁top	-1398
ahaya	-1399
ampak	-1400
ayung	-1401
emudi	-1402
engah	-1403
▁John	-1404
▁Pada	-1405
▁Saat	-1406
▁kuat	-1407
▁lima	-1408
asakan	-1409
untung	-1410
▁belas	-1411
▁hitam	-1412
▁hotel	-1413
▁keber	-1414
▁memel	-1415
▁menan	-1416
▁salju	-1417
▁Bangun	-1418
▁Gunung	-1419
▁kenapa	-1420
▁menuju	-1421
▁Berikan	-1422
▁bantuan	-1423
▁dimulai	-1424
▁mencium	-1425
▁inginkan	-1426
▁pendapat	-1427
▁televisi	-1428
▁terkejut	-1429
▁ketimbang	-1430
▁mencintai	-1431
▁penasaran	-1432
?"	-1433
ea	-1434
ark	-1435
aru	-1436
esi	-1437
uma	-1438
usi	-1439
iano	-1440
impi	-1441
olak	-1442
tutu	-1443
▁Jam	-1444
▁Kak	-1445
▁had	-1446
embak	-1447
lakan	-1448
▁Bisa	-1449
▁baca	-1450
▁berm	-1451
▁main	-1452
acetan	-1453
alaman	-1454
anding	-1455
asinya	-1456
etanya	-1457
▁biasa	-1458
▁dolar	-1459
▁kotak	-1460
▁mandi	-1461
▁novel	-1462
▁pisau	-1463
arankan	-1464
ematika	-1465
empurna	-1466
▁daging	-1467
▁pinjam	-1468
▁Biarkan	-1469
▁Kemarin	-1470
▁ketahui	-1471
▁manusia	-1472
▁menungg	-1473
▁saudara	-1474
▁sebagai	-1475
▁terluka	-1476
▁berencana	-1477
▁dilakukan	-1478
▁mengikuti	-1479
▁menyadari	-1480
▁memutuskan	-1481
▁mengerjakan	-1482
ug	-1483
abr	-1484
etu	-1485
gas	-1486
kas	-1487
kun	-1488
lan	-1489
ons	-1490
▁Er	-1491
acam	-1492
anji	-1493
ebak	-1494
inum	-1495
onom	-1496
otor	-1497
uter	-1498
▁Bel	-1499
▁Ket	-1500
▁dig	-1501
▁tas	-1502
alkan	-1503
amamu	-1504
enyum	-1505
tutup	-1506
▁alam	-1507
▁buta	-1508
▁cuma	-1509
▁lagu	-1510
▁mata	-1511
▁nasi	-1512
▁penj	-1513
▁roti	-1514
▁terg	-1515
abisan	-1516
undang	-1517
▁Hanya	-1518
▁gelap	-1519
▁gitar	-1520
▁jelas	-1521
▁kerja	-1522
▁kursi	-1523
▁sehat	-1524
▁tulis	-1525
▁warna	-1526
entikan	-1527
ukainya	-1528
▁Pernah	-1529
▁Sayang	-1530
▁gambar	-1531
▁kecewa	-1532
▁kesuka	-1533
▁mengin	-1534
▁Ruangan	-1535
▁Stasiun	-1536
▁ayahnya	-1537
▁bintang	-1538
▁membawa	-1539
▁menolak	-1540
▁menurun	-1541
▁rahasia	-1542
▁rumahku	-1543
▁sebelah	-1544
▁tanggal	-1545
▁temanku	-1546
▁terbuka	-1547
▁Bukankah	-1548
▁kepadamu	-1549
▁sempurna	-1550
▁terhadap	-1551
▁Sebaiknya	-1552
▁kehabisan	-1553
▁melihatmu	-1554
▁membuatmu	-1555
▁tersenyum	-1556
▁menyukainya	-1557
iz	-1558
aka	-1559
est	-1560
ikm	-1561
ima	-1562
inc	-1563
opa	-1564
ota	-1565
umi	-1566
▁wa	-1567
alik	-1568
apur	-1569
emas	-1570
engg	-1571
ergi	-1572
erik	-1573
ujuh	-1574
▁Ang	-1575
▁Ibu	-1576
▁Ked	-1577
▁Sem	-1578
▁bus	-1579
▁dij	-1580
▁ibu	-1581
▁lel	-1582
unyai	-1583
▁arah	-1584
▁komp	-1585
▁krim	-1586
▁malu	-1587
▁masa	-1588
▁samp	-1589
ancing	-1590
atikan	-1591
ingkat	-1592
ubungi	-1593
▁Eropa	-1594
▁Ibuku	-1595
▁beras	-1596
▁keada	-1597
▁piano	-1598
▁sepak	-1599
▁tujuh	-1600
▁Ketika	-1601
▁hangat	-1602
▁lintas	-1603
▁polisi	-1604
ingungan	-1605
▁berbeda	-1606
▁memilih	-1607
▁menutup	-1608
▁panjang	-1609
▁Beberapa	-1610
▁harganya	-1611
▁kepadaku	-1612
▁pikirkan	-1613
▁tertidur	-1614
▁kemacetan	-1615
▁mempunyai	-1616
▁kebingungan	-1617
▁menyenangkan	-1618
3.	-1619
ji	-1620
ks	-1621
oc	-1622
bol	-1623
esa	-1624
ina	-1625
mat	-1626
mur	-1627
ond	-1628
sil	-1629
tem	-1630
uas	-1631
ucu	-1632
▁Bu	-1633
ahun	-1634
aris	-1635
enuh	-1636
esar	-1637
eter	-1638
itas	-1639
uali	-1640
uhan	-1641
▁Bes	-1642
▁Mat	-1643
▁Tak	-1644
▁ben	-1645
▁bon	-1646
▁gag	-1647
▁kas	-1648
▁mes	-1649
▁pul	-1650
▁tau	-1651
▁teh	-1652
▁tep	-1653
anita	-1654
tunya	-1655
▁Dari	-1656
▁Para	-1657
▁agar	-1658
▁buka	-1659
▁ekor	-1660
▁ikut	-1661
▁terp	-1662
ainkan	-1663
antung	-1664
utusan	-1665
▁Makan	-1666
▁badan	-1667
▁hadir	-1668
▁kedua	-1669
▁paham	-1670
▁sedih	-1671
▁tuaku	-1672
ampunya	-1673
▁Banyak	-1674
▁burung	-1675
▁dengar	-1676
▁kepala	-1677
▁langit	-1678
▁menari	-1679
▁mengel	-1680
▁merind	-1681
▁pandai	-1682
▁Rumahku	-1683
▁mencuci	-1684
▁pelajar	-1685
▁pesawat	-1686
▁rencana	-1687
▁selamat	-1688
▁bukanlah	-1689
▁komputer	-1690
▁memahami	-1691
▁menolong	-1692
▁tanganmu	-1693
embunyikan	-1694
▁berbahaya	-1695
▁memancing	-1696
▁membantumu	-1697
▁menunjukkan	-1698
aus	-1699
imp	-1700
jak	-1701
ker	-1702
tur	-1703
ust	-1704
zin	-1705
▁Ak	-1706
▁kr	-1707
ahat	-1708
bung	-1709
ebas	-1710
eksi	-1711
eruk	-1712
esan	-1713
ewan	-1714
form	-1715
ilan	-1716
misi	-1717
▁jum	-1718
▁kol	-1719
▁ram	-1720
angku	-1721
erita	-1722
onomi	-1723
▁Tadi	-1724
▁bank	-1725
▁kaya	-1726
▁pers	-1727
▁soal	-1728
▁umum	-1729
asiswa	-1730
ewakan	-1731
▁Besok	-1732
▁ambil	-1733
▁basah	-1734
▁bunuh	-1735
▁danau	-1736
▁darah	-1737
▁gadis	-1738
▁garam	-1739
▁kamus	-1740
▁mengk	-1741
▁taksi	-1742
▁telur	-1743
elajari	-1744
eritahu	-1745
ujannya	-1746
▁Itulah	-1747
▁Maukah	-1748
▁Minggu	-1749
▁Tunggu	-1750
▁alasan	-1751
▁kurang	-1752
▁lanjut	-1753
▁maksud	-1754
▁pantai	-1755
▁payung	-1756
▁pintar	-1757
ungkinan	-1758
▁Pekerja	-1759
▁caranya	-1760
▁dimakan	-1761
▁keadaan	-1762
▁memeluk	-1763
▁mengend	-1764
▁mobilku	-1765
▁pacarku	-1766
▁semakin	-1767
ihatannya	-1768
▁menginap	-1769
▁Menurutmu	-1770
▁Pernahkah	-1771
▁Seseorang	-1772
▁kulakukan	-1773
▁mengingin	-1774
▁matematika	-1775
▁membiarkan	-1776
▁mempercayai	-1777
fa	-1778
of	-1779
bil	-1780
men	-1781
pen	-1782
wan	-1783
yol	-1784
▁19	-1785
▁Al	-1786
▁As	-1787
▁PR	-1788
▁hi	-1789
atif	-1790
iket	-1791
irip	-1792
istr	-1793
omor	-1794
otol	-1795
pust	-1796
sama	-1797
sung	-1798
ucon	-1799
ulus	-1800
▁Hob	-1801
▁Kam	-1802
▁Kar	-1803
▁Set	-1804
▁cap	-1805
▁cok	-1806
▁ger	-1807
▁jus	-1808
▁kal	-1809
▁lum	-1810
▁tom	-1811
acara	-1812
atuhi	-1813
buran	-1814
edung	-1815
teman	-1816
ujian	-1817
▁Adik	-1818
▁Akan	-1819
▁berf	-1820
▁buat	-1821
▁kons	-1822
akutan	-1823
angkap	-1824
aturan	-1825
endera	-1826
ikmati	-1827
obanya	-1828
ukisan	-1829
▁Akhir	-1830
▁belak	-1831
▁catur	-1832
▁cuaca	-1833
▁dapur	-1834
▁jeruk	-1835
▁kartu	-1836
▁kenal	-1837
▁kunci	-1838
▁mawar	-1839
▁mener	-1840
▁mirip	-1841
▁penuh	-1842
ucapkan	-1843
▁Airnya	-1844
▁Setiap	-1845
▁adikku	-1846
▁ayahku	-1847
▁bahkan	-1848
▁bangga	-1849
▁bersih	-1850
▁cerita	-1851
▁dirimu	-1852
▁ibunya	-1853
▁jarang	-1854
▁kamera	-1855
▁memaaf	-1856
▁memint	-1857
▁mengal	-1858
▁pemain	-1859
▁pensil	-1860
▁pindah	-1861
▁wanita	-1862
ersihkan	-1863
inggalan	-1864
▁Masalah	-1865
▁Permisi	-1866
▁bandara	-1867
▁berasal	-1868
▁jawaban	-1869
▁kecuali	-1870
▁kehidup	-1871
▁memikir	-1872
▁mengaku	-1873
▁mengira	-1874
▁pakaian	-1875
▁pilihan	-1876
▁untukmu	-1877
▁berharap	-1878
▁memotong	-1879
▁mengirim	-1880
▁rumahnya	-1881
▁bernyanyi	-1882
▁digunakan	-1883
▁ketakutan	-1884
▁mahasiswa	-1885
▁memainkan	-1886
▁mematikan	-1887
▁mengemudi	-1888
▁memberikan	-1889
▁mencobanya	-1890
▁mengecewakan	-1891
aga	-1892
aut	-1893
dra	-1894
kus	-1895
oil	-1896
ont	-1897
rat	-1898
ura	-1899
▁il	-1900
atih	-1901
awan	-1902
eran	-1903
ewat	-1904
gigi	-1905
kusi	-1906
laba	-1907
raga	-1908
taan	-1909
urus	-1910
utan	-1911
▁Pin	-1912
▁Pul	-1913
▁api	-1914
▁bin	-1915
▁gem	-1916
▁kub	-1917
aftar	-1918
ahari	-1919
aikan	-1920
encan	-1921
kunci	-1922
lukan	-1923
oilet	-1924
ompet	-1925
tanya	-1926
▁Berh	-1927
▁astr	-1928
▁coba	-1929
▁emas	-1930
▁keju	-1931
▁sofa	-1932
amudra	-1933
anggil	-1934
arinya	-1935
irahat	-1936
kadang	-1937
mainan	-1938
senang	-1939
▁Jawab	-1940
▁Kotak	-1941
▁Lebih	-1942
▁Masih	-1943
▁asing	-1944
▁bosan	-1945
▁capek	-1946
▁hewan	-1947
▁nomor	-1948
▁rusak	-1949
▁seped	-1950
▁tanah	-1951
▁ujian	-1952
atangan	-1953
embatan	-1954
empatan	-1955
jalanan	-1956
osankan	-1957
▁Karena	-1958
▁Sampai	-1959
▁alamat	-1960
▁dicuri	-1961
▁hilang	-1962
▁menemu	-1963
▁potong	-1964
▁toilet	-1965
intainya	-1966
▁Tinggal	-1967
▁jendela	-1968
▁kakakku	-1969
▁memerik	-1970
▁mengant	-1971
▁minuman	-1972
▁penjara	-1973
▁terbang	-1974
pustakaan	-1975
▁butuhkan	-1976
▁membuang	-1977
▁mencurig	-1978
▁menembak	-1979
▁radionya	-1980
▁seminggu	-1981
▁terbesar	-1982
▁waktunya	-1983
▁Keretanya	-1984
▁bersenang	-1985
▁beruntung	-1986
▁dibanding	-1987
▁favoritmu	-1988
▁keputusan	-1989
▁melupakan	-1990
▁menurutmu	-1991
▁mengangkat	-1992
▁menghilang	-1993
▁perjalanan	-1994
▁keluarganya	-1995
▁ketinggalan	-1996
▁membersihkan	-1997
▁mencintainya	-1998
▁mendengarnya	-1999
▁menyembunyikan	-2000
og	-2001
pu	-2002
yo	-2003
30.	-2004
ago	-2005
eum	-2006
ibu	-2007
juk	-2008
ogr	-2009
una	-2010
▁Ib	-2011
▁Is	-2012
▁tr	-2013
▁ut	-2014
alui	-2015
arai	-2016
ayak	-2017
emah	-2018
enya	-2019
erak	-2020
ongk	-2021
oper	-2022
tara	-2023
umur	-2024
▁Bur	-2025
▁Kel	-2026
▁Kes	-2027
▁Kup	-2028
▁Mus	-2029
▁Pen	-2030
▁Seh	-2031
▁bos	-2032
▁dem	-2033
▁did	-2034
▁gug	-2035
abkan	-2036
adiah	-2037
ambah	-2038
ancur	-2039
arnya	-2040
egang	-2041
embar	-2042
gigit	-2043
ingan	-2044
lihat	-2045
▁Guru	-2046
▁Nama	-2047
▁akal	-2048
▁bang	-2049
▁gula	-2050
▁kuda	-2051
▁laba	-2052
▁para	-2053
▁plas	-2054
▁seng	-2055
▁seni	-2056
▁umur	-2057
adakan	-2058
inding	-2059
lakiku	-2060
ungguh	-2061
▁Ambil	-2062
▁Cepat	-2063
▁Hidup	-2064
▁Pintu	-2065
▁Tokyo	-2066
▁gagal	-2067
▁gelas	-2068
▁harga	-2069
▁ibuku	-2070
▁koran	-2071
▁kotor	-2072
▁lampu	-2073
▁murid	-2074
▁sukai	-2075
epaskan	-2076
▁Rambut	-2077
▁dariku	-2078
▁hadiah	-2079
▁inform	-2080
▁konyol	-2081
▁matamu	-2082
▁tangga	-2083
ambahkan	-2084
▁Seorang	-2085
▁barunya	-2086
▁bingung	-2087
▁diminum	-2088
▁kamarku	-2089
▁lumayan	-2090
▁memasuk	-2091
▁menanam	-2092
▁plastik	-2093
▁sengaja	-2094
▁untukku	-2095
▁akhirnya	-2096
▁berjanji	-2097
▁binatang	-2098
▁mengangg	-2099
▁mengubah	-2100
▁menjelas	-2101
▁menyalah	-2102
▁terkunci	-2103
▁kehidupan	-2104
▁sebaiknya	-2105
▁segalanya	-2106
▁tertinggi	-2107
▁Seharusnya	-2108
▁kesempatan	-2109
▁merindukan	-2110
▁kemungkinan	-2111
▁memperbaiki	-2112
▁pekerjaanmu	-2113
▁membicarakan	-2114
▁menginginkan	-2115
▁mengkhawatir	-2116
▁pekerjaannya	-2117
iv	-2118
▁5	-2119
ato	-2120
iko	-2121
ila	-2122
jah	-2123
kop	-2124
oga	-2125
ort	-2126
▁10	-2127
▁ny	-2128
▁ob	-2129
▁ud	-2130
acks	-2131
aktu	-2132
anja	-2133
arat	-2134
armu	-2135
atus	-2136
inga	-2137
ocok	-2138
onal	-2139
tnya	-2140
ulut	-2141
▁201	-2142
▁Ist	-2143
▁Pem	-2144
▁Pes	-2145
▁bau	-2146
▁dul	-2147
▁jas	-2148
▁kom	-2149
▁kue	-2150
▁piz	-2151
▁pos	-2152
▁say	-2153
▁tim	-2154
buang	-2155
ewati	-2156
ivers	-2157
orong	-2158
oskop	-2159
takan	-2160
▁Dulu	-2161
▁Hati	-2162
▁Jadi	-2163
▁Pria	-2164
▁Siap	-2165
▁Tiga	-2166
▁diam	-2167
▁foto	-2168
▁ping	-2169
▁semb	-2170
acanya	-2171
ackson	-2172
akasih	-2173
aminya	-2174
asihat	-2175
awakan	-2176
ungnya	-2177
▁Dapat	-2178
▁Harga	-2179
▁Hujan	-2180
▁Rapat	-2181
▁empat	-2182
▁kebun	-2183
▁lewat	-2184
▁lulus	-2185
▁pekan	-2186
▁suara	-2187
▁tiket	-2188
acamata	-2189
anyakan	-2190
enuhnya	-2191
indungi	-2192
masalah	-2193
usahaan	-2194
▁Dengan	-2195
▁Keluar	-2196
▁Polisi	-2197
▁bersel	-2198
▁daftar	-2199
▁lancar	-2200
▁mainan	-2201
▁Jackson	-2202
▁Samudra	-2203
▁anggota	-2204
▁berusia	-2205
▁lelucon	-2206
▁liburan	-2207
▁melalui	-2208
▁mengand	-2209
▁milikku	-2210
▁rasanya	-2211
▁sejarah	-2212
▁Dapatkah	-2213
▁Seberapa	-2214
▁Sudahkah	-2215
▁ambilkan	-2216
▁belakang	-2217
▁bertahan	-2218
▁keluarga	-2219
▁lampunya	-2220
▁langsung	-2221
▁melewati	-2222
▁membenci	-2223
▁mengeluh	-2224
▁nyalakan	-2225
▁terjebak	-2226
▁Pekerjaan	-2227
▁berterima	-2228
▁ditemukan	-2229
▁memanggil	-2230
▁mengalami	-2231
▁merupakan	-2232
▁melindungi	-2233
▁membantuku	-2234
▁membuatnya	-2235
▁mengundang	-2236
▁sepenuhnya	-2237
▁membosankan	-2238
▁mengendarai	-2239
▁menghubungi	-2240
▁mengucapkan	-2241
▁menyarankan	-2242
▁menyebabkan	-2243
bi	-2244
te	-2245
▁3	-2246
▁4	-2247
▁V	-2248
000	-2249
Aku	-2250
ber	-2251
ern	-2252
iat	-2253
jau	-2254
lak	-2255
olf	-2256
san	-2257
sin	-2258
tal	-2259
tor	-2260
tul	-2261
uji	-2262
ver	-2263
▁18	-2264
▁Aw	-2265
▁Ku	-2266
▁sw	-2267
ajak	-2268
aksi	-2269
apas	-2270
aruh	-2271
atas	-2272
ebat	-2273
elat	-2274
enek	-2275
entu	-2276
ilai	-2277
jaga	-2278
kali	-2279
rika	-2280
ujur	-2281
ukum	-2282
unda	-2283
▁Ind	-2284
▁Keb	-2285
▁Kep	-2286
▁Pel	-2287
▁Sej	-2288
▁Tel	-2289
▁sab	-2290
▁str	-2291
▁yen	-2292
abrik	-2293
anggu	-2294
angko	-2295
antuk	-2296
ember	-2297
entuh	-2298
innya	-2299
lanet	-2300
nikah	-2301
ogram	-2302
olusi	-2303
ompat	-2304
uanya	-2305
ubung	-2306
ungsi	-2307
▁Buka	-2308
▁Cina	-2309
▁Ever	-2310
▁Satu	-2311
▁bayi	-2312
▁bumi	-2313
▁cari	-2314
▁golf	-2315
▁kaus	-2316
▁keku	-2317
▁topi	-2318
▁usia	-2319
akaran	-2320
akibat	-2321
alikan	-2322
ampuan	-2323
arikan	-2324
ehatan	-2325
engkar	-2326
indari	-2327
▁Bunga	-2328
▁Kakak	-2329
▁Kakek	-2330
▁Pergi	-2331
▁Terus	-2332
▁bebas	-2333
▁botol	-2334
▁ibumu	-2335
▁jujur	-2336
▁layak	-2337
▁libur	-2338
▁perut	-2339
▁tanda	-2340
▁tengg	-2341
ecahkan	-2342
emahkan	-2343
esarkan	-2344
etakkan	-2345
hatikan	-2346
▁Burung	-2347
▁Hobiku	-2348
▁Kurasa	-2349
▁Sepeda	-2350
▁Tangan	-2351
▁alergi	-2352
▁apinya	-2353
▁bagiku	-2354
▁beriku	-2355
▁dijual	-2356
▁dimana	-2357
▁kemana	-2358
▁konser	-2359
▁mentah	-2360
▁museum	-2361
▁nampak	-2362
▁nyaman	-2363
▁terima	-2364
▁tombol	-2365
▁tuanya	-2366
▁tunggu	-2367
anjutnya	-2368
eluarkan	-2369
▁Belajar	-2370
▁Everest	-2371
▁Pesawat	-2372
▁Setelah	-2373
▁anaknya	-2374
▁biarkan	-2375
▁bioskop	-2376
▁cokelat	-2377
▁dinding	-2378
▁dulunya	-2379
▁manakah	-2380
▁pingsan	-2381
▁seluruh	-2382
▁tahunku	-2383
iversitas	-2384
▁berakhir	-2385
▁kamarnya	-2386
▁membujuk	-2387
▁menyakit	-2388
▁menyanyi	-2389
▁seharian	-2390
▁semangka	-2391
▁terbakar	-2392
▁tertutup	-2393
▁anjingnya	-2394
▁bantuanmu	-2395
▁bicarakan	-2396
▁kebakaran	-2397
▁menderita	-2398
▁merasakan	-2399
▁pengacara	-2400
▁peraturan	-2401
▁permainan	-2402
▁Tinggalkan	-2403
▁bertengkar	-2404
▁diperbaiki	-2405
▁bersembunyi	-2406
▁mengenalnya	-2407
▁mencurigakan	-2408
▁perpustakaan	-2409
▁memberikannya	-2410
▁memberitahumu	-2411
IM	-2412
ei	-2413
ng	-2414
ow	-2415
▁8	-2416
adw	-2417
arn	-2418
dir	-2419
eku	-2420
fik	-2421
iti	-2422
lat	-2423
oku	-2424
ore	-2425
por	-2426
top	-2427
▁30	-2428
▁At	-2429
▁SM	-2430
ansa	-2431
ayam	-2432
ecat	-2433
edia	-2434
elek	-2435
gaku	-2436
ideo	-2437
inan	-2438
inci	-2439
malu	-2440
oduk	-2441
olum	-2442
tama	-2443
usin	-2444
▁Hai	-2445
▁Kor	-2446
▁Pas	-2447
▁SIM	-2448
▁Sal	-2449
▁Tet	-2450
▁Tim	-2451
▁bet	-2452
▁dah	-2453
▁kay	-2454
▁mun	-2455
▁rak	-2456
▁rok	-2457
▁sop	-2458
▁teb	-2459
abrak	-2460
angit	-2461
artem	-2462
arung	-2463
elnya	-2464
empar	-2465
ering	-2466
idato	-2467
incin	-2468
intah	-2469
omong	-2470
ondon	-2471
siapa	-2472
tahun	-2473
udian	-2474
umkan	-2475
▁Film	-2476
▁Meja	-2477
▁Nasi	-2478
▁Toko	-2479
▁aman	-2480
▁asal	-2481
▁batu	-2482
▁cerd	-2483
▁ilmu	-2484
▁istr	-2485
▁juta	-2486
▁kaca	-2487
▁kiri	-2488
▁kont	-2489
▁lucu	-2490
▁maka	-2491
▁muak	-2492
▁obat	-2493
▁ragu	-2494
▁rasi	-2495
▁rusa	-2496
angkan	-2497
angkir	-2498
elahan	-2499
erikan	-2500
erikat	-2501
gabung	-2502
ukanya	-2503
▁2013.	-2504
▁Duduk	-2505
▁Istri	-2506
▁Pakai	-2507
▁Tuhan	-2508
▁Tulis	-2509
▁Tutup	-2510
▁Untuk	-2511
▁Waktu	-2512
▁balik	-2513
▁bersi	-2514
▁biaya	-2515
▁cocok	-2516
▁gemuk	-2517
▁gugup	-2518
▁jenis	-2519
▁jumpa	-2520
▁kanan	-2521
▁kolam	-2522
▁menip	-2523
▁paman	-2524
▁parah	-2525
▁pengg	-2526
▁pesan	-2527
▁ramah	-2528
▁ruang	-2529
▁suatu	-2530
▁tugas	-2531
amannya	-2532
amatkan	-2533
artemen	-2534
kusikan	-2535
lakinya	-2536
uncinya	-2537
▁Angkat	-2538
▁Hampir	-2539
▁London	-2540
▁Sungai	-2541
▁antara	-2542
▁bagian	-2543
▁banget	-2544
▁berani	-2545
▁boneka	-2546
▁busnya	-2547
▁dibaca	-2548
▁dibuat	-2549
▁diriku	-2550
▁gedung	-2551
▁kemari	-2552
▁kulkas	-2553
▁kuning	-2554
▁mengej	-2555
▁menyet	-2556
▁muntah	-2557
▁pendek	-2558
▁perasa	-2559
▁pisang	-2560
▁planet	-2561
▁pulpen	-2562
▁tampak	-2563
olahraga	-2564
▁Makasih	-2565
▁Serikat	-2566
▁berguna	-2567
▁berhati	-2568
▁bukunya	-2569
▁ditutup	-2570
▁hidupku	-2571
▁kamarmu	-2572
▁lupakan	-2573
▁matanya	-2574
▁matikan	-2575
▁memesan	-2576
▁menghad	-2577
▁menghar	-2578
▁rasakan	-2579
▁salahku	-2580
▁temanmu	-2581
▁terkena	-2582
▁uangnya	-2583
embalikan	-2584
▁Akhirnya	-2585
▁Duduklah	-2586
▁Hujannya	-2587
▁bangunan	-2588
▁bergerak	-2589
▁berteman	-2590
▁dibangun	-2591
▁istrinya	-2592
▁jembatan	-2593
▁kacamata	-2594
▁matahari	-2595
▁menabrak	-2596
▁menunjuk	-2597
▁perangko	-2598
▁pernikah	-2599
▁sarankan	-2600
▁sembilan	-2601
▁terdekat	-2602
▁Tambahkan	-2603
▁astronomi	-2604
▁informasi	-2605
▁keberatan	-2606
▁kemampuan	-2607
▁kepalanya	-2608
▁memercaya	-2609
▁dibesarkan	-2610
▁jendelanya	-2611
▁kesukaanku	-2612
▁memerlukan	-2613
▁memikirkan	-2614
▁menanyakan	-2615
▁menunggumu	-2616
▁menurunkan	-2617
▁menyalahkan	-2618
▁selanjutnya	-2619
▁dibandingkan	-2620
▁memperhatikan	-2621
▁mengatakannya	-2622
▁membutuhkannya	-2623
hi	-2624
li	-2625
mi	-2626
▁6	-2627
▁?	-2628
▁e	-2629
aju	-2630
han	-2631
pon	-2632
ran	-2633
taw	-2634
uga	-2635
uhu	-2636
▁Es	-2637
▁Su	-2638
▁id	-2639
▁te	-2640
abtu	-2641
adai	-2642
adar	-2643
aksa	-2644
amil	-2645
angi	-2646
anta	-2647
apal	-2648
atah	-2649
atal	-2650
egas	-2651
eles	-2652
eras	-2653
esat	-2654
etik	-2655
ikat	-2656
inal	-2657
indu	-2658
isik	-2659
oboh	-2660
pura	-2661
resi	-2662
ulat	-2663
uman	-2664
urat	-2665
uruk	-2666
▁Bea	-2667
▁Dil	-2668
▁Har	-2669
▁Kec	-2670
▁Mem	-2671
▁bay	-2672
▁buk	-2673
▁cat	-2674
▁din	-2675
▁flu	-2676
▁gak	-2677
▁int	-2678
▁keg	-2679
▁kuk	-2680
▁kup	-2681
▁pop	-2682
▁puc	-2683
▁ski	-2684
▁tem	-2685
▁tes	-2686
▁tip	-2687
aknya	-2688
aring	-2689
arkir	-2690
atasi	-2691
ihara	-2692
iling	-2693
ingku	-2694
itahu	-2695
lahan	-2696
lasik	-2697
ormal	-2698
tikan	-2699
tulis	-2700
ubang	-2701
urnya	-2702
yakit	-2703
▁Baik	-2704
▁Bers	-2705
▁Buah	-2706
▁Coba	-2707
▁Fuji	-2708
▁Halo	-2709
▁ayam	-2710
▁babi	-2711
▁baju	-2712
▁band	-2713
▁beri	-2714
▁bulu	-2715
▁demi	-2716
▁desa	-2717
▁doku	-2718
▁haus	-2719
▁kayu	-2720
▁kenc	-2721
▁kred	-2722
▁kuku	-2723
▁penc	-2724
▁perk	-2725
▁sore	-2726
▁suar	-2727
▁tanp	-2728
ajaran	-2729
angkuk	-2730
atanya	-2731
awaran	-2732
barang	-2733
elanja	-2734
endara	-2735
entara	-2736
etugas	-2737
lintas	-2738
ongkok	-2739
▁Cukai	-2740
▁Malam	-2741
▁Pulau	-2742
▁Sabtu	-2743
▁biola	-2744
▁bubur	-2745
▁cerit	-2746
▁disel	-2747
▁hasil	-2748
▁hijau	-2749
▁jasmu	-2750
▁kalah	-2751
▁lapor	-2752
▁lepas	-2753
▁malas	-2754
▁menge	-2755
▁mesin	-2756
▁mimpi	-2757
▁mulut	-2758
▁pulau	-2759
▁rindu	-2760
▁suami	-2761
▁susah	-2762
▁udara	-2763
▁video	-2764
engaruh	-2765
estoran	-2766
▁Adakah	-2767
▁Dengar	-2768
▁Langit	-2769
▁Semoga	-2770
▁Senang	-2771
▁akibat	-2772
▁aturan	-2773
▁ayahmu	-2774
▁barumu	-2775
▁berita	-2776
▁bohong	-2777
▁bosnya	-2778
▁cerdas	-2779
▁kanker	-2780
▁klasik	-2781
▁lambat	-2782
▁lengan	-2783
▁menipu	-2784
▁menyer	-2785
▁menyes	-2786
▁namamu	-2787
▁normal	-2788
▁perang	-2789
▁sampah	-2790
▁sentuh	-2791
▁sweter	-2792
▁tenang	-2793
▁tengah	-2794
▁terasa	-2795
ancurkan	-2796
atangani	-2797
ingkatan	-2798
jemahkan	-2799
lihatkan	-2800
▁Bendera	-2801
▁Kupikir	-2802
▁Lakukan	-2803
▁Menurut	-2804
▁berbuat	-2805
▁digigit	-2806
▁halaman	-2807
▁kabarmu	-2808
▁melukis	-2809
▁mendaki	-2810
▁merawat	-2811
▁milikmu	-2812
▁mobilmu	-2813
▁nasihat	-2814
▁panggil	-2815
▁perkata	-2816
▁pikiran	-2817
▁situasi	-2818
▁sungguh	-2819
▁Berhenti	-2820
▁Beritahu	-2821
▁Kuncinya	-2822
▁Lepaskan	-2823
▁Perancis	-2824
▁Rapatnya	-2825
▁Siapakah	-2826
▁berdansa	-2827
▁berharga	-2828
▁beritahu	-2829
▁bermimpi	-2830
▁bertahun	-2831
▁diadakan	-2832
▁memasuki	-2833
▁mencukur	-2834
▁menikahi	-2835
▁menyuruh	-2836
▁pacarnya	-2837
▁setengah	-2838
▁terletak	-2839
▁tersesat	-2840
engarannya	-2841
▁bergabung	-2842
▁kelelahan	-2843
▁melihatku	-2844
▁memberimu	-2845
▁memeriksa	-2846
▁mendorong	-2847
▁mengajari	-2848
▁mengatasi	-2849
▁menyentuh	-2850
▁tangannya	-2851
andatangani	-2852
▁Stasiunnya	-2853
▁bantuannya	-2854
▁berbelanja	-2855
▁berikutnya	-2856
▁kesukaanmu	-2857
▁masalahnya	-2858
▁meletakkan	-2859
▁membunuhku	-2860
▁memecahkan	-2861
▁menganggap	-2862
▁pendapatmu	-2863
▁perusahaan	-2864
▁berselancar	-2865
▁mempelajari	-2866
▁mencintaimu	-2867
▁kelihatannya	-2868
▁mengecewakanku	-2869
".	-2870
su	-2871
▁'	-2872
gai	-2873
gak	-2874
iam	-2875
koh	-2876
lik	-2877
muk	-2878
nis	-2879
ogi	-2880
rak	-2881
uah	-2882
usa	-2883
▁2:	-2884
▁It	-2885
▁au	-2886
▁ji	-2887
▁mi	-2888
▁ul	-2889
acun	-2890
ahab	-2891
ahuk	-2892
ajah	-2893
ajam	-2894
akat	-2895
aket	-2896
akmu	-2897
baru	-2898
beda	-2899
buru	-2900
ebus	-2901
elam	-2902
faat	-2903
idih	-2904
inar	-2905
itif	-2906
jauh	-2907
mpan	-2908
oker	-2909
ones	-2910
rasi	-2911
tiba	-2912
ulir	-2913
urau	-2914
▁Atl	-2915
▁Jer	-2916
▁Kop	-2917
▁Kul	-2918
▁Man	-2919
▁Mon	-2920
▁New	-2921
▁Nya	-2922
▁SMA	-2923
▁Tas	-2924
▁bol	-2925
▁dew	-2926
▁gor	-2927
▁isi	-2928
▁kac	-2929
▁ken	-2930
▁kil	-2931
▁lem	-2932
▁lip	-2933
▁pil	-2934
▁pus	-2935
▁res	-2936
▁sih	-2937
▁sup	-2938
▁tal	-2939
adwal	-2940
agian	-2941
ahagi	-2942
ampan	-2943
andia	-2944
anduk	-2945
angsa	-2946
butuh	-2947
elahi	-2948
empit	-2949
engat	-2950
enyak	-2951
iring	-2952
kipun	-2953
kohol	-2954
ologi	-2955
olume	-2956
onsel	-2957
tahil	-2958
umbuh	-2959
umpul	-2960
umput	-2961
uncul	-2962
undur	-2963
▁Bank	-2964
▁Jaga	-2965
▁Mata	-2966
▁Meks	-2967
▁Pasi	-2968
▁Pend	-2969
▁Peng	-2970
▁Uang	-2971
▁aula	-2972
▁bawa	-2973
▁form	-2974
▁izin	-2975
▁laut	-2976
▁mari	-2977
▁mist	-2978
▁pemu	-2979
▁peny	-2980
▁perm	-2981
▁peta	-2982
▁prof	-2983
▁puas	-2984
▁ribu	-2985
▁sapi	-2986
▁sesu	-2987
▁temb	-2988
▁urus	-2989
▁usah	-2990
▁wort	-2991
ahukah	-2992
anakku	-2993
anggan	-2994
apanmu	-2995
aparan	-2996
ebakan	-2997
ejanya	-2998
etahui	-2999
ingkah	-3000
kurang	-3001
masing	-3002
rangan	-3003
ukuran	-3004
ulitan	-3005
▁2:30.	-3006
▁Bulan	-3007
▁Ingat	-3008
▁Jalan	-3009
▁Kedua	-3010
▁Kulit	-3011
▁Natal	-3012
▁Paris	-3013
▁Salah	-3014
▁aktor	-3015
▁berar	-3016
▁dikat	-3017
▁habis	-3018
▁hamil	-3019
▁hantu	-3020
▁hutan	-3021
▁jelek	-3022
▁kesep	-3023
▁koper	-3024
▁kulit	-3025
▁manis	-3026
▁musuh	-3027
▁nenek	-3028
▁nggak	-3029
▁pelan	-3030
▁pucat	-3031
▁saran	-3032
▁tajam	-3033
▁tasmu	-3034
▁telat	-3035
▁tikus	-3036
▁utama	-3037
ahuinya	-3038
alaupun	-3039
anaknya	-3040
anggung	-3041
antikan	-3042
epatnya	-3043
inginan	-3044
malukan	-3045
nyataan	-3046
tawakan	-3047
▁Akulah	-3048
▁Bahkan	-3049
▁Dokter	-3050
▁Inilah	-3051
▁Italia	-3052
▁Jerman	-3053
▁Kereta	-3054
▁Sebuah	-3055
▁Selalu	-3056
▁bahaya	-3057
▁bantal	-3058
▁berist	-3059
▁berpel	-3060
▁cincin	-3061
▁dahulu	-3062
▁dewasa	-3063
▁garasi	-3064
▁gereja	-3065
▁hitung	-3066
▁istana	-3067
▁itulah	-3068
▁jumlah	-3069
▁kadang	-3070
▁kembar	-3071
▁kredit	-3072
▁masing	-3073
▁maupun	-3074
▁membel	-3075
▁menaik	-3076
▁mendis	-3077
▁mengag	-3078
▁menyir	-3079
▁muncul	-3080
▁paspor	-3081
▁sambil	-3082
▁sarung	-3083
▁sempit	-3084
▁tampan	-3085
▁tepung	-3086
▁terang	-3087
▁volume	-3088
engaruhi	-3089
temannya	-3090
▁Katakan	-3091
▁Lupakan	-3092
▁Meksiko	-3093
▁Pasifik	-3094
▁Petugas	-3095
▁Tahukah	-3096
▁artinya	-3097
▁bendera	-3098
▁berkons	-3099
▁berniat	-3100
▁bersiap	-3101
▁beruang	-3102
▁berumur	-3103
▁catatan	-3104
▁dipecat	-3105
▁istriku	-3106
▁istrimu	-3107
▁kakinya	-3108
▁kebenar	-3109
▁lainnya	-3110
▁lukisan	-3111
▁memperk	-3112
▁memukul	-3113
▁memulai	-3114
▁menakut	-3115
▁menemui	-3116
▁menjaga	-3117
▁menyimp	-3118
▁misteri	-3119
▁nyenyak	-3120
▁pelayan	-3121
▁perbeda	-3122
▁perbuat	-3123
▁talinya	-3124
▁tawaran	-3125
▁telinga	-3126
▁tulisan	-3127
▁umumnya	-3128
▁Bangunan	-3129
▁Dilarang	-3130
▁Tidakkah	-3131
▁bergurau	-3132
▁formulir	-3133
▁harusnya	-3134
▁hujannya	-3135
▁keduanya	-3136
▁kemudian	-3137
▁maksudmu	-3138
▁melompat	-3139
▁mematuhi	-3140
▁membalas	-3141
▁mendidih	-3142
▁mengakui	-3143
▁mengatur	-3144
▁mengemud	-3145
▁mengetuk	-3146
▁menyesal	-3147
▁pelajari	-3148
▁penyanyi	-3149
▁serangga	-3150
▁siapapun	-3151
▁suaranya	-3152
▁suratnya	-3153
▁tahunnya	-3154
▁temannya	-3155
antikannya	-3156
▁Bangunlah	-3157
▁Dengarkan	-3158
▁Sayangnya	-3159
▁Terkadang	-3160
▁berfungsi	-3161
▁berkelahi	-3162
▁dikatakan	-3163
▁dipercaya	-3164
▁kelaparan	-3165
▁kesulitan	-3166
▁memaafkan	-3167
▁memintaku	-3168
▁menghemat	-3169
▁meningkat	-3170
▁menyangka	-3171
▁sangatlah	-3172
▁Masalahnya	-3173
▁bersamanya	-3174
▁dipelajari	-3175
▁kekurangan	-3176
▁membelikan	-3177
▁mempermain	-3178
▁menciumnya	-3179
▁menghadiri	-3180
▁menghargai	-3181
▁teleponnya	-3182
▁Universitas	-3183
▁bertanggung	-3184
▁memperingat	-3185
▁menjelaskan	-3186
▁menyanyikan	-3187
▁beristirahat	-3188
▁menertawakan	-3189
▁menghentikan	-3190
▁Kedengarannya	-3191
▁mengetahuinya	-3192
▁meninggalkanmu	-3193
▁mengkhawatirkan	-3194
mb	-3195
oy	-3196
za	-3197
dai	-3198
dar	-3199
ean	-3200
ega	-3201
ego	-3202
erd	-3203
erj	-3204
erl	-3205
hic	-3206
ice	-3207
jar	-3208
juj	-3209
kap	-3210
ket	-3211
mut	-3212
ode	-3213
oni	-3214
org	-3215
ork	-3216
pet	-3217
tan	-3218
tif	-3219
wis	-3220
yet	-3221
▁2.	-3222
▁Kr	-3223
▁Ya	-3224
▁ab	-3225
▁da	-3226
▁me	-3227
▁ok	-3228
▁re	-3229
▁sp	-3230
anau	-3231
apai	-3232
brak	-3233
ejam	-3234
ekas	-3235
ensa	-3236
erai	-3237
esta	-3238
ewas	-3239
gala	-3240
idik	-3241
ikap	-3242
iksi	-3243
iter	-3244
itik	-3245
jata	-3246
oyek	-3247
pert	-3248
saan	-3249
siap	-3250
tern	-3251
uari	-3252
ubur	-3253
umat	-3254
unci	-3255
ungu	-3256
uris	-3257
usak	-3258
utar	-3259
▁Oke	-3260
▁Pak	-3261
▁Sus	-3262
▁ang	-3263
▁baj	-3264
▁bep	-3265
▁bud	-3266
▁cel	-3267
▁hid	-3268
▁hob	-3269
▁idi	-3270
▁kor	-3271
▁kum	-3272
▁kut	-3273
▁leb	-3274
▁maj	-3275
▁mil	-3276
▁mon	-3277
▁pal	-3278
▁pet	-3279
▁pol	-3280
▁rem	-3281
▁rum	-3282
▁sum	-3283
▁tun	-3284
▁und	-3285
▁usi	-3286
▁waw	-3287
aksan	-3288
anyak	-3289
embus	-3290
enjak	-3291
eraku	-3292
ersih	-3293
etode	-3294
feksi	-3295
ibuan	-3296
indak	-3297
inkan	-3298
istol	-3299
murid	-3300
ratis	-3301
sanya	-3302
sinya	-3303
urumu	-3304
▁Apel	-3305
▁Asia	-3306
▁Baca	-3307
▁Chic	-3308
▁Cium	-3309
▁Ikan	-3310
▁Mana	-3311
▁Mars	-3312
▁Menc	-3313
▁Pemb	-3314
▁Pers	-3315
▁Swis	-3316
▁Umur	-3317
▁York	-3318
▁asli	-3319
▁banj	-3320
▁cucu	-3321
▁gaji	-3322
▁gaya	-3323
▁gunt	-3324
▁huku	-3325
▁jiwa	-3326
▁lari	-3327
▁perg	-3328
▁piza	-3329
▁raja	-3330
▁sisi	-3331
▁suhu	-3332
▁tagi	-3333
▁terc	-3334
▁tiap	-3335
▁tiri	-3336
▁tong	-3337
▁truk	-3338
▁tuli	-3339
abaran	-3340
ahabat	-3341
ayakan	-3342
burung	-3343
ekolah	-3344
eleset	-3345
endang	-3346
ergian	-3347
iapkan	-3348
ihatan	-3349
incang	-3350
isinya	-3351
istrik	-3352
jadian	-3353
layang	-3354
ondong	-3355
onesia	-3356
ormati	-3357
sampai	-3358
zinkan	-3359
▁Alice	-3360
▁Andai	-3361
▁Benar	-3362
▁Dunia	-3363
▁Gadis	-3364
▁Ibumu	-3365
▁Jenis	-3366
▁Kerja	-3367
▁Kursi	-3368
▁Mulai	-3369
▁Novel	-3370
▁Salju	-3371
▁Tahun	-3372
▁Tekan	-3373
▁Teman	-3374
▁badai	-3375
▁belok	-3376
▁berku	-3377
▁berli	-3378
▁cerah	-3379
▁diter	-3380
▁halte	-3381
▁jaket	-3382
▁kakek	-3383
▁kapal	-3384
▁lensa	-3385
▁lipat	-3386
▁meman	-3387
▁menah	-3388
▁napas	-3389
▁pajak	-3390
▁pedas	-3391
▁pengh	-3392
▁pizza	-3393
▁popul	-3394
▁ratus	-3395
▁sabar	-3396
▁sadar	-3397
▁sejam	-3398
▁sinar	-3399
▁tebal	-3400
▁tekan	-3401
▁tuamu	-3402
▁turis	-3403
▁wajah	-3404
arnanya	-3405
atuhkan	-3406
esional	-3407
intunya	-3408
olehkan	-3409
temanku	-3410
▁Adikku	-3411
▁Busnya	-3412
▁Datang	-3413
▁Dimana	-3414
▁Gedung	-3415
▁Ibunya	-3416
▁Kulkas	-3417
▁Namaku	-3418
▁Pabrik	-3419
▁Pulpen	-3420
▁Ribuan	-3421
▁Seekor	-3422
▁Tomlah	-3423
▁adanya	-3424
▁asuran	-3425
▁bensin	-3426
▁bisbol	-3427
▁bonnya	-3428
▁darimu	-3429
▁diatas	-3430
▁disini	-3431
▁dompet	-3432
▁gratis	-3433
▁kontak	-3434
▁layang	-3435
▁lubang	-3436
▁mampir	-3437
▁masker	-3438
▁mengab	-3439
▁mengen	-3440
▁mengob	-3441
▁mengur	-3442
▁menyed	-3443
▁pember	-3444
▁persik	-3445
▁pidato	-3446
▁renang	-3447
▁ringan	-3448
▁rumput	-3449
▁selain	-3450
▁seolah	-3451
▁sesuai	-3452
▁sumber	-3453
▁takdir	-3454
▁terbit	-3455
andangan	-3456
antainya	-3457
arkannya	-3458
ayangkan	-3459
baikinya	-3460
empurung	-3461
eriksaan	-3462
▁Bawakan	-3463
▁Chicago	-3464
▁Jawaban	-3465
▁Lukisan	-3466
▁Namanya	-3467
▁Pertama	-3468
▁Sekolah	-3469
▁bayinya	-3470
▁berarti	-3471
▁berisik	-3472
▁berlaku	-3473
▁bernama	-3474
▁ceroboh	-3475
▁darinya	-3476
▁dibunuh	-3477
▁disebut	-3478
▁dokumen	-3479
▁hukuman	-3480
▁jebakan	-3481
▁kalimat	-3482
▁listrik	-3483
▁majalah	-3484
▁masakan	-3485
▁membant	-3486
▁menahan	-3487
▁menaiki	-3488
▁menaruh	-3489
▁menduga	-3490
▁menebak	-3491
▁ngantuk	-3492
▁sayuran	-3493
▁segelas	-3494
▁senjata	-3495
▁tanpamu	-3496
▁tersisa	-3497
▁usianya	-3498
aksanakan	-3499
▁Atlantik	-3500
▁Bukannya	-3501
▁Cepatlah	-3502
▁Kulitnya	-3503
▁Lihatlah	-3504
▁berfikir	-3505
▁berulang	-3506
▁cuacanya	-3507
▁dijatuhi	-3508
▁diundang	-3509
▁hentikan	-3510
▁hidupnya	-3511
▁melempar	-3512
▁menangan	-3513
▁mengecat	-3514
▁menggali	-3515
▁mengunci	-3516
▁menjalan	-3517
▁mustahil	-3518
▁olahraga	-3519
▁penyakit	-3520
▁perlahan	-3521
▁pestanya	-3522
▁pinjaman	-3523
▁rambutmu	-3524
▁restoran	-3525
▁sakitnya	-3526
▁sebanyak	-3527
▁sepedaku	-3528
▁suaminya	-3529
▁terbunuh	-3530
▁terburuk	-3531
▁Datanglah	-3532
▁Indonesia	-3533
▁Langitnya	-3534
▁Menurutku	-3535
▁Pelajaran	-3536
▁bepergian	-3537
▁berdering	-3538
▁bermaksud	-3539
▁bersamaku	-3540
▁bersamamu	-3541
▁istirahat	-3542
▁kegelapan	-3543
▁kelihatan	-3544
▁keretanya	-3545
▁kesehatan	-3546
▁melarikan	-3547
▁memberiku	-3548
▁menangkap	-3549
▁mengandal	-3550
▁menikmati	-3551
▁pelajaran	-3552
▁pembohong	-3553
▁rambutnya	-3554
▁selamanya	-3555
▁sepedanya	-3556
▁tenggelam	-3557
▁tunjukkan	-3558
▁Sebenarnya	-3559
▁berpelukan	-3560
▁bersekolah	-3561
▁jawabannya	-3562
▁kedatangan	-3563
▁komputerku	-3564
▁membelinya	-3565
▁memintanya	-3566
▁menahannya	-3567
▁menggambar	-3568
▁menungguku	-3569
▁menyiapkan	-3570
▁pengalaman	-3571
▁permasalah	-3572
▁pernikahan	-3573
▁pertanding	-3574
▁secepatnya	-3575
▁seringkali	-3576
▁terpeleset	-3577
▁tertinggal	-3578
▁memahaminya	-3579
▁memperkenal	-3580
▁meneleponku	-3581
▁mengantarmu	-3582
▁mengirimkan	-3583
▁menjatuhkan	-3584
▁perempuanku	-3585
▁profesional	-3586
▁Kelihatannya	-3587
▁kesalahannya	-3588
▁memaafkannya	-3589
▁mengeluarkan	-3590
▁mengemudikan	-3591
▁mempercayaiku	-3592
▁mengembalikan	-3593
▁menyelamatkan	-3594
▁memberitahukan	-3595
▁memberitahunya	-3596
▁memperbaikinya	-3597
▁menandatangani	-3598
▁menjelaskannya	-3599
0.	-3600
2.	-3601
9.	-3602
TM	-3603
ez	-3604
lo	-3605
ux	-3606
▁z	-3607
abi	-3608
abu	-3609
adu	-3610
aji	-3611
ban	-3612
cak	-3613
ebo	-3614
enj	-3615
ept	-3616
erb	-3617
ipi	-3618
ler	-3619
oak	-3620
oki	-3621
osi	-3622
rab	-3623
ren	-3624
rib	-3625
ril	-3626
rol	-3627
str	-3628
tut	-3629
uks	-3630
uni	-3631
urn	-3632
yur	-3633
▁16	-3634
▁Af	-3635
▁Br	-3636
▁Ko	-3637
▁Oh	-3638
▁Os	-3639
▁br	-3640
▁dr	-3641
▁ek	-3642
▁gr	-3643
ahit	-3644
akti	-3645
amai	-3646
auan	-3647
ejak	-3648
emeh	-3649
erti	-3650
etul	-3651
ezat	-3652
foto	-3653
gesa	-3654
graf	-3655
hana	-3656
ikam	-3657
inux	-3658
ipat	-3659
isan	-3660
jian	-3661
kira	-3662
kuat	-3663
mail	-3664
mark	-3665
mpor	-3666
ocor	-3667
okan	-3668
osis	-3669
siun	-3670
tiga	-3671
ulah	-3672
umpa	-3673
uruf	-3674
utku	-3675
▁199	-3676
▁ATM	-3677
▁Aki	-3678
▁Api	-3679
▁Ben	-3680
▁Bon	-3681
▁Bus	-3682
▁Cob	-3683
▁Gar	-3684
▁Kon	-3685
▁Kuh	-3686
▁Mes	-3687
▁Rok	-3688
▁Sau	-3689
▁Ser	-3690
▁Unt	-3691
▁and	-3692
▁cac	-3693
▁car	-3694
▁ego	-3695
▁eks	-3696
▁gal	-3697
▁gun	-3698
▁kek	-3699
▁lac	-3700
▁mal	-3701
▁mew	-3702
▁tuk	-3703
abean	-3704
akkan	-3705
akuti	-3706
alaku	-3707
ampur	-3708
andas	-3709
andum	-3710
anian	-3711
antan	-3712
antas	-3713
atian	-3714
bunga	-3715
egera	-3716
eligi	-3717
elpon	-3718
emuan	-3719
endak	-3720
ender	-3721
epeda	-3722
eping	-3723
ilkan	-3724
indar	-3725
irkan	-3726
istem	-3727
itung	-3728
jajar	-3729
nyata	-3730
oberi	-3731
pijak	-3732
resif	-3733
ukamu	-3734
ukkan	-3735
ukung	-3736
umpah	-3737
utang	-3738
▁Asal	-3739
▁Atur	-3740
▁Baju	-3741
▁Berc	-3742
▁Biar	-3743
▁Bila	-3744
▁Bima	-3745
▁Bumi	-3746
▁Emas	-3747
▁Jauh	-3748
▁Juli	-3749
▁Kota	-3750
▁Olah	-3751
▁Raja	-3752
▁arti	-3753
▁cuci	-3754
▁dasi	-3755
▁engg	-3756
▁hobi	-3757
▁jago	-3758
▁kent	-3759
▁laku	-3760
▁lemb	-3761
▁luas	-3762
▁nark	-3763
▁oper	-3764
▁otak	-3765
▁padi	-3766
▁paru	-3767
▁pena	-3768
▁perd	-3769
▁rapi	-3770
▁raya	-3771
▁tamu	-3772
▁tata	-3773
▁tepi	-3774
▁tuju	-3775
Namaku	-3776
ampang	-3777
ampung	-3778
ancara	-3779
andung	-3780
anggup	-3781
angnya	-3782
atinya	-3783
ciuman	-3784
etulan	-3785
iasaan	-3786
idikan	-3787
irikan	-3788
lakimu	-3789
market	-3790
oduksi	-3791
oleksi	-3792
sinyur	-3793
ternet	-3794
ukakan	-3795
umbang	-3796
unjung	-3797
▁2.30.	-3798
▁April	-3799
▁Belok	-3800
▁Belum	-3801
▁Cinta	-3802
▁Dalam	-3803
▁Danau	-3804
▁Darah	-3805
▁Jumat	-3806
▁Kamar	-3807
▁Korea	-3808
▁Linux	-3809
▁Minum	-3810
▁Musik	-3811
▁Sakti	-3812
▁Seped	-3813
▁Swiss	-3814
▁Tepat	-3815
▁Tetap	-3816
▁Tungg	-3817
▁Warna	-3818
▁angka	-3819
▁bekas	-3820
▁benua	-3821
▁bocor	-3822
▁bukit	-3823
▁bulat	-3824
▁deras	-3825
▁egois	-3826
▁ember	-3827
▁fasih	-3828
▁fiksi	-3829
▁ganti	-3830
▁garis	-3831
▁hukum	-3832
▁huruf	-3833
▁jejak	-3834
▁kasar	-3835
▁keren	-3836
▁kurus	-3837
▁lebah	-3838
▁lemah	-3839
▁lezat	-3840
▁luang	-3841
▁lusin	-3842
▁macam	-3843
▁menaw	-3844
▁meter	-3845
▁mohon	-3846
▁motor	-3847
▁panik	-3848
▁paruh	-3849
▁patah	-3850
▁perak	-3851
▁peril	-3852
▁pusat	-3853
▁resmi	-3854
▁subuh	-3855
▁tepuk	-3856
▁tewas	-3857
▁topan	-3858
▁tubuh	-3859
asilkan	-3860
atalkan	-3861
ebaskan	-3862
ejamkan	-3863
ejutkan	-3864
eliling	-3865
emangat	-3866
entilah	-3867
entrasi	-3868
erjakan	-3869
faatkan	-3870
iptakan	-3871
temanmu	-3872
▁Afrika	-3873
▁Akibat	-3874
▁Apapun	-3875
▁Dompet	-3876
▁Kemari	-3877
▁Sangat	-3878
▁Sepatu	-3879
▁Tenang	-3880
▁akurat	-3881
▁angkat	-3882
▁basket	-3883
▁batang	-3884
▁berisi	-3885
▁berjam	-3886
▁cermat	-3887
▁coklat	-3888
▁dibawa	-3889
▁dibeli	-3890
▁diluar	-3891
▁diperb	-3892
▁gandum	-3893
▁gelang	-3894
▁goreng	-3895
▁gurumu	-3896
▁hendak	-3897
▁hubung	-3898
▁jadwal	-3899
▁karpet	-3900
▁ketiga	-3901
▁landas	-3902
▁lelaki	-3903
▁lemari	-3904
▁mataku	-3905
▁memaks	-3906
▁member	-3907
▁mengap	-3908
▁mengep	-3909
▁nyamuk	-3910
▁pabrik	-3911
▁pemalu	-3912
▁pemuda	-3913
▁permen	-3914
▁pistol	-3915
▁ponsel	-3916
▁proyek	-3917
▁religi	-3918
▁selagi	-3919
▁selera	-3920
▁sembuh	-3921
▁sistem	-3922
▁solusi	-3923
▁tambah	-3924
▁tukang	-3925
▁ukuran	-3926
▁wortel	-3927
ahagiaan	-3928
anjutkan	-3929
erbangan	-3930
jujurnya	-3931
umpulkan	-3932
untungan	-3933
▁Cobalah	-3934
▁Hubungi	-3935
▁Kalimat	-3936
▁Kopinya	-3937
▁Kuharap	-3938
▁Maafkan	-3939
▁Manusia	-3940
▁Panggil	-3941
▁Sesuatu	-3942
▁Telepon	-3943
▁agresif	-3944
▁alkohol	-3945
▁bolanya	-3946
▁dipaksa	-3947
▁dipijak	-3948
▁ditulis	-3949
▁filmnya	-3950
▁gunakan	-3951
▁gunanya	-3952
▁gunting	-3953
▁harapan	-3954
▁harinya	-3955
▁ilmuwan	-3956
▁kananku	-3957
▁kantong	-3958
▁katanya	-3959
▁kebutuh	-3960
▁kedalam	-3961
▁kenakan	-3962
▁lamanya	-3963
▁laporan	-3964
▁lukanya	-3965
▁manapun	-3966
▁mejanya	-3967
▁meludah	-3968
▁melukai	-3969
▁meminum	-3970
▁memperl	-3971
▁meremeh	-3972
▁merusak	-3973
▁narkoba	-3974
▁pelatih	-3975
▁pensiun	-3976
▁perempu	-3977
▁perhati	-3978
▁positif	-3979
▁rumahmu	-3980
▁sahabat	-3981
▁sanggup	-3982
▁satupun	-3983
▁semesta	-3984
▁seratus	-3985
▁tahunmu	-3986
▁tentara	-3987
▁terburu	-3988
▁tergesa	-3989
▁terjaga	-3990
▁tongkat	-3991
aturannya	-3992
encanakan	-3993
endalikan	-3994
ingungkan	-3995
permarket	-3996
▁Benarkah	-3997
▁Harusnya	-3998
▁Hentikan	-3999
▁Internet	-4000
▁Jembatan	-4001
▁Matahari	-4002
▁Mobilnya	-4003
▁Nyalakan	-4004
▁Olahraga	-4005
▁Pastikan	-4006
▁Pendapat	-4007
▁Teruslah	-4008
▁Tiongkok	-4009
▁Walaupun	-4010
▁asuransi	-4011
▁bergegas	-4012
▁berjumpa	-4013
▁berlatih	-4014
▁berlibur	-4015
▁darimana	-4016
▁dilarang	-4017
▁diterima	-4018
▁hanyalah	-4019
▁hasilnya	-4020
▁insinyur	-4021
▁kameraku	-4022
▁kecilkan	-4023
▁kematian	-4024
▁kesepian	-4025
▁komentar	-4026
▁kriminal	-4027
▁menelpon	-4028
▁mengajak	-4029
▁mengenai	-4030
▁menuruni	-4031
▁menyetir	-4032
▁menyiram	-4033
▁perintah	-4034
▁perminta	-4035
▁petunjuk	-4036
▁seberang	-4037
▁seberapa	-4038
▁sedingin	-4039
▁sepotong	-4040
▁setinggi	-4041
▁stroberi	-4042
▁tanganku	-4043
▁terdapat	-4044
▁tersedia	-4045
▁tetangga	-4046
▁untuknya	-4047
esaikannya	-4048
▁Bangunkan	-4049
▁Kesehatan	-4050
▁Kulkasnya	-4051
▁Tenanglah	-4052
▁Tunggulah	-4053
▁Tunjukkan	-4054
▁Untungnya	-4055
▁berhembus	-4056
▁bersepeda	-4057
▁bertarung	-4058
▁bertindak	-4059
▁dengarkan	-4060
▁dihindari	-4061
▁dijunjung	-4062
▁diketahui	-4063
▁ditangkap	-4064
▁favoritku	-4065
▁kebiasaan	-4066
▁kepadanya	-4067
▁kesabaran	-4068
▁kukatakan	-4069
▁makananmu	-4070
▁masalahku	-4071
▁membangun	-4072
▁menangani	-4073
▁mencariku	-4074
▁menendang	-4075
▁mengantar	-4076
▁mengantuk	-4077
▁menggangg	-4078
▁mengganti	-4079
▁menghadap	-4080
▁mengobrol	-4081
▁menjalani	-4082
▁menyimpan	-4083
▁pelanggan	-4084
▁pengemudi	-4085
▁perbedaan	-4086
▁perkataan	-4087
▁pertamaku	-4088
▁pertolong	-4089
▁secangkir	-4090
▁sekolahmu	-4091
▁singkatan	-4092
▁tempurung	-4093
▁terdengar	-4094
▁terhindar	-4095
▁tombolnya	-4096
▁Kebanyakan	-4097
▁Kecelakaan	-4098
▁Keluargaku	-4099
▁Makanannya	-4100
▁Matematika	-4101
▁bergantung	-4102
▁berpikiran	-4103
▁bertingkah	-4104
▁departemen	-4105
▁diskusikan	-4106
▁memasukkan	-4107
▁membawakan	-4108
▁membencimu	-4109
▁memelihara	-4110
▁memercayai	-4111
▁menakutkan	-4112
▁menawarkan	-4113
▁mengadakan	-4114
▁menghubung	-4115
▁mengoleksi	-4116
▁menunggang	-4117
▁menyalakan	-4118
▁menyetrika	-4119
▁perasaanmu	-4120
▁pernyataan	-4121
▁seorangpun	-4122
▁tertangkap	-4123
▁Berhentilah	-4124
▁Perlihatkan	-4125
▁dikeluarkan	-4126
▁kebahagiaan	-4127
▁keberangkat	-4128
▁kesalahanku	-4129
▁membantunya	-4130
▁memenangkan	-4131
▁menciptakan	-4132
▁meneleponmu	-4133
▁menolongnya	-4134
▁pekerjaanku	-4135
▁pemeriksaan	-4136
▁pendapatnya	-4137
▁diselesaikan	-4138
▁memanfaatkan	-4139
▁memberikanku	-4140
▁membiarkanmu	-4141
▁memeriksanya	-4142
▁menghasilkan	-4143
▁mengumpulkan	-4144
▁menyeberangi	-4145
▁pertandingan	-4146
▁diperbolehkan	-4147
▁diterjemahkan	-4148
▁membiarkannya	-4149
▁mempermalukan	-4150
▁menantikannya	-4151
▁mendiskusikan	-4152
▁mengendalikan	-4153
▁menghancurkan	-4154
▁mempercayainya	-4155
▁mengingatkanku	-4156
▁mempermainkanku	-4157
",	-4158
,"	-4159
FO	-4160
de	-4161
ka	-4162
pr	-4163
sp	-4164
▁$	-4165
▁Z	-4166
aif	-4167
art	-4168
aun	-4169
ayi	-4170
bau	-4171
bir	-4172
cor	-4173
erm	-4174
eti	-4175
gen	-4176
hat	-4177
isk	-4178
iza	-4179
jub	-4180
lar	-4181
les	-4182
nyi	-4183
odi	-4184
onc	-4185
ono	-4186
ord	-4187
ori	-4188
orw	-4189
pel	-4190
rus	-4191
sen	-4192
sia	-4193
tet	-4194
tir	-4195
tua	-4196
tum	-4197
uny	-4198
upa	-4199
wai	-4200
yar	-4201
yok	-4202
yum	-4203
▁25	-4204
▁3.	-4205
▁40	-4206
▁AC	-4207
▁Ar	-4208
▁Cu	-4209
▁En	-4210
▁Ky	-4211
▁Om	-4212
▁Sk	-4213
▁Th	-4214
▁Ul	-4215
▁ah	-4216
▁be	-4217
▁du	-4218
▁ef	-4219
▁ev	-4220
▁fr	-4221
▁ka	-4222
▁pu	-4223
.000	-4224
Kata	-4225
Saya	-4226
adam	-4227
adop	-4228
agar	-4229
aget	-4230
ajat	-4231
alat	-4232
alis	-4233
amun	-4234
amur	-4235
andu	-4236
apus	-4237
arut	-4238
atap	-4239
cara	-4240
corn	-4241
daun	-4242
ebab	-4243
eceh	-4244
egia	-4245
ehat	-4246
ekom	-4247
ekuk	-4248
emar	-4249
empa	-4250
epuk	-4251
esid	-4252
esti	-4253
gamu	-4254
gian	-4255
giku	-4256
gila	-4257
hian	-4258
hima	-4259
ikar	-4260
ikus	-4261
ilin	-4262
imut	-4263
ingk	-4264
irau	-4265
isah	-4266
jaks	-4267
kupu	-4268
miah	-4269
mpul	-4270
omba	-4271
onat	-4272
onis	-4273
oton	-4274
paru	-4275
sias	-4276
uasa	-4277
ular	-4278
umam	-4279
unan	-4280
urid	-4281
utih	-4282
yaku	-4283
yung	-4284
▁200	-4285
▁Baw	-4286
▁Bom	-4287
▁Fac	-4288
▁Hei	-4289
▁Jan	-4290
▁Jup	-4291
▁Kro	-4292
▁Kub	-4293
▁Kud	-4294
▁Lel	-4295
▁May	-4296
▁Mei	-4297
▁Mel	-4298
▁Pis	-4299
▁Rem	-4300
▁Sed	-4301
▁Teh	-4302
▁Tep	-4303
▁UFO	-4304
▁aks	-4305
▁alb	-4306
▁amb	-4307
▁ant	-4308
▁deb	-4309
▁der	-4310
▁des	-4311
▁fil	-4312
▁gas	-4313
▁gim	-4314
▁hiu	-4315
▁iri	-4316
▁jal	-4317
▁kop	-4318
▁kud	-4319
▁lok	-4320
▁lot	-4321
▁mik	-4322
▁mod	-4323
▁nab	-4324
▁oke	-4325
▁peg	-4326
▁pud	-4327
▁reg	-4328
▁sat	-4329
▁sil	-4330
▁tab	-4331
▁waj	-4332
adisi	-4333
ahuan	-4334
aikat	-4335
alang	-4336
alnya	-4337
amiku	-4338
ampil	-4339
andai	-4340
andar	-4341
ankan	-4342
antis	-4343
apain	-4344
asnya	-4345
aunya	-4346
ayaan	-4347
barui	-4348
ebook	-4349
egini	-4350
ejaku	-4351
ejala	-4352
embal	-4353
enaga	-4354
enter	-4355
enuhi	-4356
ernet	-4357
hidup	-4358
iakan	-4359
iking	-4360
ikuti	-4361
iskin	-4362
isten	-4363
jawab	-4364
junya	-4365
kanya	-4366
kotak	-4367
kulat	-4368
linya	-4369
masuk	-4370
ongan	-4371
uasai	-4372
udaya	-4373
uktur	-4374
uliah	-4375
uling	-4376
umlah	-4377
ungku	-4378
untuh	-4379
untuk	-4380
vatif	-4381
▁Alam	-4382
▁Aneh	-4383
▁Astr	-4384
▁Awas	-4385
▁Bagi	-4386
▁Batu	-4387
▁Bayi	-4388
▁Cuci	-4389
▁Diam	-4390
▁Foto	-4391
▁Hobi	-4392
▁Juni	-4393
▁Kaki	-4394
▁Kant	-4395
▁Keju	-4396
▁Khan	-4397
▁Kira	-4398
▁Komp	-4399
▁Lagu	-4400
▁Lima	-4401
▁Mand	-4402
▁Memb	-4403
▁Norw	-4404
▁Penc	-4405
▁Perc	-4406
▁Pert	-4407
▁Piza	-4408
▁Rasa	-4409
▁Sama	-4410
▁Seri	-4411
▁Susu	-4412
▁Ters	-4413
▁adil	-4414
▁akta	-4415
▁alas	-4416
▁antu	-4417
▁area	-4418
▁arus	-4419
▁asap	-4420
▁bila	-4421
▁bran	-4422
▁diaj	-4423
▁disi	-4424
▁dita	-4425
▁gemb	-4426
▁imut	-4427
▁janj	-4428
▁kena	-4429
▁koin	-4430
▁krit	-4431
▁kuno	-4432
▁kutu	-4433
▁luka	-4434
▁lusa	-4435
▁madu	-4436
▁mant	-4437
▁muka	-4438
▁naif	-4439
▁pahl	-4440
▁pega	-4441
▁perl	-4442
▁sant	-4443
▁semi	-4444
▁syok	-4445
▁ungu	-4446
Bangsa	-4447
Berapa	-4448
Terima	-4449
acunan	-4450
adopsi	-4451
agukan	-4452
akaian	-4453
akunya	-4454
alahan	-4455
amaian	-4456
andang	-4457
angkai	-4458
angkut	-4459
asikan	-4460
atiwan	-4461
awanku	-4462
buahan	-4463
daraku	-4464
elahir	-4465
elamat	-4466
elawar	-4467
empuan	-4468
enekku	-4469
engang	-4470
erdeka	-4471
esiden	-4472
etakan	-4473
grafer	-4474
iarkan	-4475
ingkan	-4476
irinya	-4477
landia	-4478
likasi	-4479
obatan	-4480
oleran	-4481
onakan	-4482
ongkar	-4483
ribadi	-4484
ubahan	-4485
uguran	-4486
ultasi	-4487
unggah	-4488
ungkit	-4489
▁Angin	-4490
▁Gajah	-4491
▁Harap	-4492
▁Hasil	-4493
▁Hotel	-4494
▁Ikuti	-4495
▁India	-4496
▁Kupas	-4497
▁Kyoto	-4498
▁Masuk	-4499
▁Mulut	-4500
▁Murid	-4501
▁Musim	-4502
▁Omong	-4503
▁Osaka	-4504
▁Pacar	-4505
▁Perek	-4506
▁Suara	-4507
▁Sulit	-4508
▁Surat	-4509
▁Tentu	-4510
▁Tiket	-4511
▁Udara	-4512
▁absen	-4513
▁alami	-4514
▁angin	-4515
▁artik	-4516
▁bagai	-4517
▁bengk	-4518
▁bukti	-4519
▁detik	-4520
▁dimas	-4521
▁dinya	-4522
▁donat	-4523
▁gagap	-4524
▁gajah	-4525
▁garpu	-4526
▁gugur	-4527
▁harta	-4528
▁heran	-4529
▁idiot	-4530
▁instr	-4531
▁jamur	-4532
▁jangg	-4533
▁janji	-4534
▁kabur	-4535
▁kaget	-4536
▁kasus	-4537
▁kejam	-4538
▁kontr	-4539
▁kumis	-4540
▁kupon	-4541
▁loker	-4542
▁meled	-4543
▁memat	-4544
▁mempr	-4545
▁menet	-4546
▁mengu	-4547
▁meyak	-4548
▁naiki	-4549
▁nilai	-4550
▁padat	-4551
▁pagar	-4552
▁palsu	-4553
▁pasir	-4554
▁pasta	-4555
▁pilek	-4556
▁pilot	-4557
▁poker	-4558
▁puisi	-4559
▁pungg	-4560
▁putra	-4561
▁ramai	-4562
▁receh	-4563
▁retak	-4564
▁rokok	-4565
▁sabuk	-4566
▁segar	-4567
▁seksi	-4568
▁selai	-4569
▁sikat	-4570
▁situs	-4571
▁sopan	-4572
▁sopir	-4573
▁sumur	-4574
▁sungg	-4575
▁surga	-4576
▁surya	-4577
▁sushi	-4578
▁tagih	-4579
▁tomat	-4580
▁utara	-4581
▁zaman	-4582
ampilan	-4583
anggang	-4584
angsung	-4585
antakan	-4586
ekomend	-4587
eksinya	-4588
engaran	-4589
erintah	-4590
erjemah	-4591
ersihan	-4592
etulkan	-4593
hianati	-4594
idaknya	-4595
ilinnya	-4596
ingatan	-4597
isahkan	-4598
isihkan	-4599
jaksana	-4600
kulator	-4601
nyiakan	-4602
okteran	-4603
timbang	-4604
uangkan	-4605
ukannya	-4606
umumkan	-4607
unungan	-4608
yarakat	-4609
▁Anakku	-4610
▁Aturan	-4611
▁Bangsa	-4612
▁Begitu	-4613
▁Boneka	-4614
▁Kaulah	-4615
▁Kembal	-4616
▁Kurang	-4617
▁Metode	-4618
▁Monyet	-4619
▁Payung	-4620
▁Pegang	-4621
▁Pulang	-4622
▁Santai	-4623
▁Sarung	-4624
▁Sedang	-4625
▁Sejauh	-4626
▁Tembak	-4627
▁anakku	-4628
▁bagimu	-4629
▁bajumu	-4630
▁banjir	-4631
▁bannya	-4632
▁baruku	-4633
▁berapi	-4634
▁betapa	-4635
▁betina	-4636
▁bisnis	-4637
▁buatan	-4638
▁bukumu	-4639
▁cahaya	-4640
▁celana	-4641
▁daerah	-4642
▁diajak	-4643
▁dipenj	-4644
▁gimana	-4645
▁handuk	-4646
▁ilmiah	-4647
▁jamnya	-4648
▁kacang	-4649
▁kakiku	-4650
▁kakimu	-4651
▁kecoak	-4652
▁kelapa	-4653
▁kencan	-4654
▁kencur	-4655
▁kering	-4656
▁ketemu	-4657
▁kooper	-4658
▁kuatir	-4659
▁kuenya	-4660
▁kuliah	-4661
▁lamaku	-4662
▁langka	-4663
▁laptop	-4664
▁lorong	-4665
▁membah	-4666
▁mempek	-4667
▁mengup	-4668
▁menyam	-4669
▁menyia	-4670
▁miliki	-4671
▁minyak	-4672
▁miskin	-4673
▁modern	-4674
▁mundur	-4675
▁namaku	-4676
▁nonton	-4677
▁pabean	-4678
▁pantas	-4679
▁pengec	-4680
▁perahu	-4681
▁persis	-4682
▁piring	-4683
▁produk	-4684
▁puncak	-4685
▁rahasi	-4686
▁remaja	-4687
▁santai	-4688
▁sarang	-4689
▁sejauh	-4690
▁sendok	-4691
▁simpan	-4692
▁tenaga	-4693
▁terben	-4694
▁tergel	-4695
▁terjun	-4696
▁terkec	-4697
▁tujuan	-4698
▁tulang	-4699
▁umurmu	-4700
▁urusan	-4701
aharinya	-4702
anggapan	-4703
angkanya	-4704
barangmu	-4705
encanamu	-4706
endaraan	-4707
erikatan	-4708
eritakan	-4709
evisinya	-4710
icaranya	-4711
indahkan	-4712
iringnya	-4713
undurkan	-4714
urusanmu	-4715
utusanmu	-4716
zinkanku	-4717
▁Banknya	-4718
▁Beneran	-4719
▁Bersiap	-4720
▁Izinkan	-4721
▁Januari	-4722
▁Jupiter	-4723
▁Kakakku	-4724
▁Kamarmu	-4725
▁Kamulah	-4726
▁Kembali	-4727
▁Kroasia	-4728
▁Lelucon	-4729
▁Makanan	-4730
▁Mangkuk	-4731
▁Matanya	-4732
▁Matikan	-4733
▁Mencari	-4734
▁Merokok	-4735
▁Mobilku	-4736
▁Nenekku	-4737
▁Nikmati	-4738
▁Perutku	-4739
▁Program	-4740
▁Rasanya	-4741
▁Sejarah	-4742
▁Seluruh	-4743
▁Semakin	-4744
▁Seperti	-4745
▁Sungguh	-4746
▁baiknya	-4747
▁berburu	-4748
▁berkali	-4749
▁berlalu	-4750
▁berpeng	-4751
▁berpura	-4752
▁bisakah	-4753
▁brankas	-4754
▁derajat	-4755
▁dibakar	-4756
▁dihukum	-4757
▁diikuti	-4758
▁ekonomi	-4759
▁gampang	-4760
▁gerbang	-4761
▁gigitan	-4762
▁hatinya	-4763
▁jalanan	-4764
▁jutawan	-4765
▁kacamat	-4766
▁kalinya	-4767
▁kelahir	-4768
▁kelasmu	-4769
▁kelinci	-4770
▁kemauan	-4771
▁kenalan	-4772
▁kopinya	-4773
▁lacinya	-4774
▁mangkuk	-4775
▁melepas	-4776
▁membenc	-4777
▁mencair	-4778
▁menekan	-4779
▁meneman	-4780
▁mengisi	-4781
▁menular	-4782
▁menunda	-4783
▁menyala	-4784
▁menyapa	-4785
▁merebus	-4786
▁monoton	-4787
▁mukanya	-4788
▁mulutmu	-4789
▁novelis	-4790
▁operasi	-4791
▁pegawai	-4792
▁pemalas	-4793
▁penjaga	-4794
▁penulis	-4795
▁politik	-4796
▁program	-4797
▁punyaku	-4798
▁salinan	-4799
▁samping	-4800
▁satunya	-4801
▁sebelas	-4802
▁sebesar	-4803
▁sebodoh	-4804
▁sebulan	-4805
▁seharga	-4806
▁sejajar	-4807
▁sekarat	-4808
▁selimut	-4809
▁semacam	-4810
▁sepatah	-4811
▁setahun	-4812
▁singkat	-4813
▁suratmu	-4814
▁temukan	-4815
▁terdiam	-4816
▁topinya	-4817
entikanku	-4818
feksionis	-4819
kurangnya	-4820
▁Anjingku	-4821
▁Bercanda	-4822
▁Biasanya	-4823
▁Facebook	-4824
▁Harganya	-4825
▁Ingatkan	-4826
▁Kakeknya	-4827
▁Kejadian	-4828
▁Keluarga	-4829
▁Kerjakan	-4830
▁Lampunya	-4831
▁Meskipun	-4832
▁Norwegia	-4833
▁Pergilah	-4834
▁Pertanya	-4835
▁Pintunya	-4836
▁Rambutmu	-4837
▁Rumahnya	-4838
▁Saljunya	-4839
▁Sebagian	-4840
▁Sebentar	-4841
▁Serahkan	-4842
▁Siapapun	-4843
▁Silahkan	-4844
▁Tanyakan	-4845
▁Terakhir	-4846
▁Tetangga	-4847
▁Tetaplah	-4848
▁Warnanya	-4849
▁andalkan	-4850
▁antusias	-4851
▁badannya	-4852
▁berambut	-4853
▁berbagai	-4854
▁bercerai	-4855
▁bergumam	-4856
▁berpuasa	-4857
▁bersikap	-4858
▁dalamnya	-4859
▁disengat	-4860
▁garamnya	-4861
▁gelasnya	-4862
▁internet	-4863
▁jelaskan	-4864
▁karangan	-4865
▁kotaknya	-4866
▁malaikat	-4867
▁maskermu	-4868
▁masuknya	-4869
▁memegang	-4870
▁memenuhi	-4871
▁menambah	-4872
▁mencapai	-4873
▁mengalir	-4874
▁mengejar	-4875
▁menyaran	-4876
▁meskipun	-4877
▁pamannya	-4878
▁pembunuh	-4879
▁perasaan	-4880
▁pertanya	-4881
▁rasional	-4882
▁religius	-4883
▁sebatang	-4884
▁sekurang	-4885
▁selembar	-4886
▁semangat	-4887
▁sembunyi	-4888
▁semenjak	-4889
▁serigala	-4890
▁sesegera	-4891
▁tanggung	-4892
▁tanyakan	-4893
▁tempatmu	-4894
▁tenggara	-4895
▁tentunya	-4896
▁tepatnya	-4897
▁terampil	-4898
▁terjatuh	-4899
▁terlebih	-4900
▁termasuk	-4901
▁terpilih	-4902
▁terserah	-4903
▁tertulis	-4904
▁tidaklah	-4905
▁tunangan	-4906
▁undangan	-4907
eritahukan	-4908
pertanyaan	-4909
timbangkan	-4910
▁Astronomi	-4911
▁Jawabanmu	-4912
▁Keputusan	-4913
▁Lantainya	-4914
▁Permainan	-4915
▁Pulanglah	-4916
▁alasannya	-4917
▁anggurnya	-4918
▁berbaring	-4919
▁berciuman	-4920
▁berlanjut	-4921
▁bertambah	-4922
▁bijaksana	-4923
▁ceritakan	-4924
▁ceritanya	-4925
▁dibongkar	-4926
▁dihormati	-4927
▁dinikmati	-4928
▁ditinggal	-4929
▁kebenaran	-4930
▁kebutuhan	-4931
▁keinginan	-4932
▁keluarnya	-4933
▁kemerdeka	-4934
▁kendaraan	-4935
▁keponakan	-4936
▁keracunan	-4937
▁ketiaknya	-4938
▁maksudnya	-4939
▁menciummu	-4940
▁menemuimu	-4941
▁menggigit	-4942
▁menghirau	-4943
▁menguasai	-4944
▁menyakiti	-4945
▁nabatiwan	-4946
▁pandangan	-4947
▁pemasaran	-4948
▁penggemar	-4949
▁pensilnya	-4950
▁pidatonya	-4951
▁pikiranmu	-4952
▁sampaikan	-4953
▁sampingku	-4954
▁sekalipun	-4955
▁sementara	-4956
▁sungguhan	-4957
▁telanjang	-4958
▁tentangmu	-4959
▁terganggu	-4960
▁terkadang	-4961
▁tertabrak	-4962
▁wawancara	-4963
▁Jawabannya	-4964
▁Kembalikan	-4965
▁Kembalilah	-4966
▁Kendalikan	-4967
▁Perusahaan	-4968
▁Ruangannya	-4969
▁Selesaikan	-4970
▁Tinggallah	-4971
▁belakangan	-4972
▁belakangmu	-4973
▁berantakan	-4974
▁berbincang	-4975
▁berguguran	-4976
▁berkendara	-4977
▁berpakaian	-4978
▁dinyatakan	-4979
▁fotografer	-4980
▁kalkulator	-4981
▁kebanyakan	-4982
▁kebersihan	-4983
▁keluargaku	-4984
▁kembalikan	-4985
▁kooperatif	-4986
▁masyarakat	-4987
▁memakannya	-4988
▁memaksanya	-4989
▁membacanya	-4990
▁memberinya	-4991
▁membukakan	-4992
▁membukanya	-4993
▁membunuhmu	-4994
▁mencurigai	-4995
▁mendirikan	-4996
▁mengandung	-4997
▁mengangguk	-4998
▁mengapresi	-4999
▁mengembali	-5000
▁mengerikan	-5001
▁mengganggu	-5002
▁menghitung	-5003
▁mengunggah	-5004
▁menolongku	-5005
▁menyukaimu	-5006
▁menyuruhmu	-5007
▁pakaiannya	-5008
▁panggilkan	-5009
▁penerjemah	-5010
▁pentingnya	-5011
▁permintaan	-5012
▁sendirinya	-5013
▁tercengang	-5014
▁tergantung	-5015
▁terpanjang	-5016
▁tinggalkan	-5017
▁Kemungkinan	-5018
▁beranggapan	-5019
▁beritahukan	-5020
▁berlangsung	-5021
▁dihancurkan	-5022
▁keputusanmu	-5023
▁khawatirkan	-5024
▁konservatif	-5025
▁melanjutkan	-5026
▁melupakanku	-5027
▁memanggilmu	-5028
▁membayarnya	-5029
▁membujuknya	-5030
▁memengaruhi	-5031
▁meminjamkan	-5032
▁memperbarui	-5033
▁menambahkan	-5034
▁mencintaiku	-5035
▁menemukanmu	-5036
▁mengabaikan	-5037
▁mengagumkan	-5038
▁mengajarimu	-5039
▁mengajarkan	-5040
▁mengejarnya	-5041
▁mengejutkan	-5042
▁menggantung	-5043
▁mengikutiku	-5044
▁menjawabnya	-5045
▁menyakitimu	-5046
▁menyerahkan	-5047
▁menyisihkan	-5048
▁pemandangan	-5049
▁sembunyikan	-5050
▁supermarket	-5051
▁universitas	-5052
▁Perpustakaan	-5053
▁Perserikatan	-5054
▁diselamatkan	-5055
▁kebenarannya	-5056
▁melaksanakan	-5057
▁melupakannya	-5058
▁membayangkan	-5059
▁membelikanku	-5060
▁memberikanmu	-5061
▁membuatkanmu	-5062
▁mengganggumu	-5063
▁mengkhianati	-5064
▁mengundurkan	-5065
▁peraturannya	-5066
▁perempuannya	-5067
▁perfeksionis	-5068
▁permasalahan	-5069
▁Pertanyaannya	-5070
▁berkonsultasi	-5071
▁berpengalaman	-5072
▁membingungkan	-5073
▁memikirkannya	-5074
▁mempekerjakan	-5075
▁mempercayaimu	-5076
▁mengizinkanku	-5077
▁merindukannya	-5078
▁berkonsentrasi	-5079
▁membangunkanku	-5080
▁memperingatkan	-5081
▁memperkenalkan	-5082
▁mendengarkanku	-5083
▁mengandalkanmu	-5084
▁mengecewakanmu	-5085
▁mengerjakannya	-5086
▁menggunakannya	-5087
▁menghentikanku	-5088
▁menghubunginya	-5089
▁menyerahkannya	-5090
▁menginginkannya	-5091
▁meninggalkannya	-5092
-8	-5093
16	-5094
4.	-5095
5.	-5096
8.	-5097
Ap	-5098
BB	-5099
DS	-5100
Di	-5101
Si	-5102
Ya	-5103
az	-5104
do	-5105
ef	-5106
ft	-5107
ge	-5108
ib	-5109
kr	-5110
le	-5111
ly	-5112
me	-5113
oe	-5114
ue	-5115
xf	-5116
xi	-5117
▁(	-5118
▁7	-5119
▁9	-5120
▁x	-5121
:00	-5122
IDS	-5123
Tom	-5124
aih	-5125
akh	-5126
ans	-5127
aul	-5128
bal	-5129
bus	-5130
cok	-5131
daf	-5132
dag	-5133
den	-5134
dis	-5135
ebr	-5136
eni	-5137
eon	-5138
eor	-5139
ert	-5140
fat	-5141
gae	-5142
ger	-5143
hal	-5144
ido	-5145
inj	-5146
ino	-5147
ins	-5148
inv	-5149
iol	-5150
ion	-5151
jek	-5152
jer	-5153
kar	-5154
leh	-5155
los	-5156
lub	-5157
min	-5158
mis	-5159
mum	-5160
obs	-5161
oda	-5162
oli	-5163
ona	-5164
pam	-5165
par	-5166
pek	-5167
pil	-5168
pis	-5169
ret	-5170
rik	-5171
ris	-5172
tus	-5173
udi	-5174
uki	-5175
upu	-5176
utr	-5177
val	-5178
war	-5179
wuj	-5180
yam	-5181
▁22	-5182
▁28	-5183
▁50	-5184
▁8.	-5185
▁Cl	-5186
▁DJ	-5187
▁Da	-5188
▁Gi	-5189
▁Ik	-5190
▁Ju	-5191
▁Kh	-5192
▁Re	-5193
▁So	-5194
▁Sp	-5195
▁Sy	-5196
▁TH	-5197
▁Ur	-5198
▁bl	-5199
afi	-5200
gna	-5201
lim	-5202
lop	-5203
teg	-5204
▁17	-5205
▁Ng	-5206
▁OK	-5207
▁Ot	-5208
▁em	-5209
▁fo	-5210
▁ge	-5211
▁pi	-5212
▁ri	-5213
▁up	-5214
Sama	-5215
aati	-5216
abar	-5217
abel	-5218
abot	-5219
abut	-5220
acuh	-5221
adah	-5222
agam	-5223
ahak	-5224
ahal	-5225
ajai	-5226
ajut	-5227
akim	-5228
akna	-5229
alon	-5230
amen	-5231
amit	-5232
amus	-5233
anas	-5234
ango	-5235
anto	-5236
apak	-5237
apel	-5238
aruk	-5239
asah	-5240
asar	-5241
asta	-5242
asuh	-5243
atat	-5244
ator	-5245
awai	-5246
ayuh	-5247
cium	-5248
disi	-5249
ecah	-5250
edai	-5251
edih	-5252
egal	-5253
eget	-5254
eher	-5255
ekad	-5256
ekse	-5257
elku	-5258
elom	-5259
emis	-5260
emui	-5261
emur	-5262
enda	-5263
endi	-5264
enov	-5265
eput	-5266
erus	-5267
esak	-5268
eser	-5269
esor	-5270
etas	-5271
etis	-5272
hari	-5273
idal	-5274
iduk	-5275
ingi	-5276
iran	-5277
isti	-5278
itab	-5279
itan	-5280
jung	-5281
kent	-5282
ksit	-5283
kura	-5284
lain	-5285
lalu	-5286
loji	-5287
luas	-5288
obos	-5289
okka	-5290
okoh	-5291
olog	-5292
omas	-5293
onik	-5294
ontr	-5295
opos	-5296
oror	-5297
osau	-5298
osur	-5299
▁Em	-5300
imba	-5301
otes	-5302
pati	-5303
rono	-5304
sial	-5305
spir	-5306
uduh	-5307
udul	-5308
ukar	-5309
uler	-5310
ulik	-5311
umen	-5312
umor	-5313
umsi	-5314
unik	-5315
unju	-5316
unus	-5317
usan	-5318
usir	-5319
usuk	-5320
utin	-5321
yang	-5322
▁100	-5323
▁188	-5324
▁Bib	-5325
▁Dik	-5326
▁Din	-5327
▁Dua	-5328
▁Ger	-5329
▁Gub	-5330
▁Gur	-5331
▁Isi	-5332
▁Jag	-5333
▁Jen	-5334
▁Kal	-5335
▁Kol	-5336
▁Kuk	-5337
▁Leb	-5338
▁Los	-5339
▁Mil	-5340
▁Nap	-5341
▁Neg	-5342
▁Nil	-5343
▁Nov	-5344
▁Oxf	-5345
▁Pol	-5346
▁Pop	-5347
▁Res	-5348
▁Rog	-5349
▁Sup	-5350
▁Tan	-5351
▁Yun	-5352
▁amp	-5353
▁aut	-5354
▁ayo	-5355
▁bab	-5356
▁bal	-5357
▁bea	-5358
▁bed	-5359
▁bim	-5360
▁bom	-5361
▁cab	-5362
▁cek	-5363
▁dog	-5364
▁ent	-5365
▁gaj	-5366
▁hak	-5367
▁hot	-5368
▁ind	-5369
▁jag	-5370
▁jog	-5371
▁kad	-5372
▁kat	-5373
▁kej	-5374
▁kim	-5375
▁kre	-5376
▁lam	-5377
▁lim	-5378
▁mam	-5379
▁mim	-5380
▁naf	-5381
▁org	-5382
▁pai	-5383
▁pak	-5384
▁pam	-5385
▁pep	-5386
▁pom	-5387
▁ras	-5388
▁rel	-5389
▁rom	-5390
▁sew	-5391
▁sir	-5392
▁sub	-5393
▁tek	-5394
▁tir	-5395
▁tud	-5396
▁web	-5397
▁wis	-5398
▁xil	-5399
▁ov	-5400
Umur	-5401
edip	-5402
iksa	-5403
ipas	-5404
▁Wak	-5405
▁imp	-5406
▁yah	-5407
▁yuk	-5408
Siapa	-5409
adani	-5410
ageti	-5411
ahami	-5412
ainan	-5413
ajuan	-5414
akdir	-5415
akjub	-5416
alagi	-5417
alist	-5418
amaan	-5419
ampok	-5420
ancam	-5421
andan	-5422
anjak	-5423
anjil	-5424
antam	-5425
apura	-5426
arahi	-5427
arian	-5428
arnai	-5429
asana	-5430
asang	-5431
asien	-5432
asiku	-5433
askan	-5434
atnya	-5435
atumu	-5436
ausan	-5437
balik	-5438
beran	-5439
bulan	-5440
butan	-5441
cepat	-5442
cinya	-5443
dapat	-5444
ebung	-5445
elima	-5446
elkan	-5447
esaan	-5448
etaku	-5449
eting	-5450
etuju	-5451
harga	-5452
henti	-5453
ianis	-5454
idiki	-5455
ikian	-5456
impin	-5457
impor	-5458
isika	-5459
jabat	-5460
jelas	-5461
juang	-5462
minal	-5463
minum	-5464
muara	-5465
oalan	-5466
odium	-5467
ohnya	-5468
ompok	-5469
ontak	-5470
orgol	-5471
osong	-5472
pilih	-5473
rikot	-5474
surat	-5475
tugas	-5476
tular	-5477
turut	-5478
unduh	-5479
uriga	-5480
uruti	-5481
uskah	-5482
uyung	-5483
wujud	-5484
yukur	-5485
▁AIDS	-5486
▁Alah	-5487
▁Band	-5488
▁Baru	-5489
▁Beli	-5490
▁Berb	-5491
▁Bern	-5492
▁Bola	-5493
▁Dasi	-5494
▁Febr	-5495
▁Gula	-5496
▁Ikut	-5497
▁Jari	-5498
▁Kegi	-5499
jib	-5500
etus	-5501
ofon	-5502
tega	-5503
ugat	-5504
▁197	-5505
▁Alk	-5506
▁PBB	-5507
agoda	-5508
esiko	-5509
ikmah	-5510
incir	-5511
koper	-5512
menya	-5513
ontek	-5514
▁2013	-5515
▁Konf	-5516
▁Kuda	-5517
▁Kura	-5518
▁Laba	-5519
▁Laki	-5520
▁Lalu	-5521
▁Lama	-5522
▁Lari	-5523
▁Laut	-5524
▁Lisa	-5525
▁Lonc	-5526
▁Luar	-5527
▁Lusa	-5528
▁Mona	-5529
▁Mula	-5530
▁Naik	-5531
▁Obat	-5532
▁Paka	-5533
▁Paus	-5534
▁Peny	-5535
▁Saud	-5536
▁Sing	-5537
▁Skot	-5538
▁Stop	-5539
▁Suhu	-5540
▁Tapi	-5541
▁Tiba	-5542
▁Tiup	-5543
▁Topi	-5544
▁Umum	-5545
▁arit	-5546
▁asam	-5547
▁atap	-5548
▁atom	-5549
▁besi	-5550
▁bisu	-5551
▁buny	-5552
▁buru	-5553
▁camp	-5554
▁data	-5555
▁daya	-5556
▁diar	-5557
▁diiz	-5558
▁dong	-5559
▁duri	-5560
▁efek	-5561
▁elek	-5562
▁esai	-5563
▁esok	-5564
▁faks	-5565
▁ginj	-5566
▁gitu	-5567
▁gram	-5568
▁inci	-5569
▁ingg	-5570
▁jari	-5571
▁kain	-5572
▁kamb	-5573
▁karb	-5574
▁kegi	-5575
▁keny	-5576
▁keri	-5577
▁kewa	-5578
▁klub	-5579
▁kode	-5580
▁koki	-5581
▁kupu	-5582
▁lasa	-5583
▁lift	-5584
▁merd	-5585
▁peli	-5586
▁perc	-5587
▁pura	-5588
▁rabi	-5589
▁reda	-5590
▁saku	-5591
▁segi	-5592
▁semu	-5593
▁sens	-5594
▁sewa	-5595
▁suci	-5596
▁tali	-5597
▁teks	-5598
▁temp	-5599
▁60	-5600
diam	-5601
ajahi	-5602
nunda	-5603
▁Kopi	-5604
▁kilo	-5605
▁suks	-5606
▁tind	-5607
▁trak	-5608
▁ubah	-5609
▁ukul	-5610
▁ular	-5611
▁ultr	-5612
▁unta	-5613
▁urat	-5614
▁voli	-5615
Apakah	-5616
Namamu	-5617
abotan	-5618
aduhan	-5619
ajengk	-5620
ajikan	-5621
ajukan	-5622
akatan	-5623
alitas	-5624
amping	-5625
anakmu	-5626
anduan	-5627
anggar	-5628
angkah	-5629
angkal	-5630
angkau	-5631
angkok	-5632
angkum	-5633
anting	-5634
arawan	-5635
atihan	-5636
awanya	-5637
ayakah	-5638
ayanan	-5639
bersih	-5640
buatan	-5641
bungan	-5642
daftar	-5643
edakan	-5644
elikan	-5645
embang	-5646
enggot	-5647
engkal	-5648
epatah	-5649
erakan	-5650
hiasan	-5651
icanya	-5652
ijakan	-5653
inggir	-5654
ingkuh	-5655
intasi	-5656
katamu	-5657
menter	-5658
nakuti	-5659
ografi	-5660
ontrol	-5661
oshima	-5662
tronik	-5663
turkan	-5664
uaskan	-5665
uhanmu	-5666
ujanan	-5667
umpang	-5668
umuran	-5669
uncang	-5670
ungkan	-5671
ungkus	-5672
upanya	-5673
usahan	-5674
usakan	-5675
yatnya	-5676
▁1888.	-5677
▁3.000	-5678
▁Acara	-5679
▁Awasi	-5680
▁Badai	-5681
▁Bantu	-5682
▁Barat	-5683
▁Botol	-5684
▁Buang	-5685
▁Colum	-5686
▁Cukup	-5687
▁Esper	-5688
▁Habis	-5689
▁Hokka	-5690
▁Kamis	-5691
▁Kapal	-5692
▁Kocok	-5693
▁Koper	-5694
▁Lepas	-5695
▁Makin	-5696
▁Memer	-5697
▁Mimpi	-5698
▁Nanti	-5699
32.	-5700
ekerj	-5701
osial	-5702
untut	-5703
▁Brad	-5704
▁Gaun	-5705
▁Nept	-5706
▁Usia	-5707
▁grup	-5708
▁jurn	-5709
▁pipi	-5710
▁ubur	-5711
Umurmu	-5712
daramu	-5713
erhana	-5714
esokan	-5715
keping	-5716
▁Garpu	-5717
▁Koala	-5718
▁PRnya	-5719
▁Peman	-5720
▁Piano	-5721
▁Pukul	-5722
▁Roger	-5723
▁Rusia	-5724
▁Santa	-5725
▁Sepat	-5726
▁Singa	-5727
▁Suatu	-5728
▁Susah	-5729
▁Tahan	-5730
▁Tanda	-5731
▁Telah	-5732
▁Telur	-5733
▁Tiada	-5734
▁Ujian	-5735
▁Ulang	-5736
▁Utara	-5737
▁acara	-5738
▁akrab	-5739
▁aktif	-5740
▁antik	-5741
▁badut	-5742
▁bakar	-5743
▁balas	-5744
▁banjo	-5745
▁barat	-5746
▁batas	-5747
▁berke	-5748
▁bibir	-5749
▁botak	-5750
▁buaya	-5751
▁budak	-5752
▁celan	-5753
▁cemas	-5754
▁ceria	-5755
▁debat	-5756
▁demam	-5757
▁dilah	-5758
▁diseb	-5759
▁diser	-5760
▁finan	-5761
▁fokus	-5762
▁gemar	-5763
▁gempa	-5764
▁hebat	-5765
▁idiom	-5766
▁ikuti	-5767
▁impor	-5768
▁intan	-5769
▁jenuh	-5770
▁judul	-5771
▁kanji	-5772
▁kapas	-5773
▁kasir	-5774
▁kawan	-5775
▁kebis	-5776
▁kejah	-5777
▁kenya	-5778
▁keran	-5779
▁kirim	-5780
▁kocok	-5781
▁komik	-5782
▁korek	-5783
▁lelap	-5784
▁letak	-5785
▁lokal	-5786
▁lurus	-5787
▁macet	-5788
▁makin	-5789
▁malah	-5790
▁melam	-5791
▁meski	-5792
▁mesti	-5793
▁nyawa	-5794
▁omong	-5795
▁organ	-5796
▁palem	-5797
▁papan	-5798
▁pasar	-5799
▁"16	-5800
dison	-5801
enius	-5802
ringi	-5803
▁Oleh	-5804
▁debu	-5805
akhiri	-5806
itikus	-5807
obsesi	-5808
oposal	-5809
▁Claus	-5810
▁Pisau	-5811
▁album	-5812
▁domba	-5813
▁horor	-5814
▁humor	-5815
▁jalur	-5816
▁kidal	-5817
▁larut	-5818
▁patuh	-5819
▁peman	-5820
▁punah	-5821
▁putus	-5822
▁rambu	-5823
▁ribut	-5824
▁rimba	-5825
▁rinci	-5826
▁rumit	-5827
▁rutin	-5828
▁sabun	-5829
▁sains	-5830
▁salam	-5831
▁salon	-5832
▁sampo	-5833
▁sayur	-5834
▁senam	-5835
▁struk	-5836
▁sukar	-5837
▁supir	-5838
▁susyi	-5839
▁tanya	-5840
▁tawar	-5841
▁tegas	-5842
▁tekun	-5843
▁tentu	-5844
▁teori	-5845
▁terin	-5846
▁terow	-5847
▁tersi	-5848
▁timur	-5849
▁tingg	-5850
▁tinta	-5851
▁tipis	-5852
▁udang	-5853
▁usaha	-5854
▁veget	-5855
▁wajan	-5856
▁warga	-5857
▁waris	-5858
Biarkan	-5859
Selamat	-5860
adwalku	-5861
afalkan	-5862
agumkan	-5863
ajaiban	-5864
alahkan	-5865
amusaji	-5866
ancarai	-5867
asarkan	-5868
atannya	-5869
bangkan	-5870
bincang	-5871
bintang	-5872
bungnya	-5873
ebabnya	-5874
elahkan	-5875
elajahi	-5876
elancar	-5877
elihara	-5878
eluaran	-5879
enangan	-5880
enangis	-5881
engerti	-5882
enovasi	-5883
entukan	-5884
eputasi	-5885
erdosis	-5886
eringat	-5887
estinya	-5888
estival	-5889
etahuan	-5890
formasi	-5891
gunakan	-5892
hatilah	-5893
icaraan	-5894
intalah	-5895
isikkan	-5896
jauhlah	-5897
lukisan	-5898
obohkan	-5899
▁kipas	-5900
hentian	-5901
olongan	-5902
onomian	-5903
onsumsi	-5904
ormatan	-5905
osaurus	-5906
pergian	-5907
siapkan	-5908
teganya	-5909
temanan	-5910
tetangg	-5911
tujukan	-5912
uksesan	-5913
umbuhan	-5914
unikasi	-5915
ustrasi	-5916
uternya	-5917
▁Ayolah	-5918
▁Baunya	-5919
▁Begini	-5920
▁Berani	-5921
▁Berita	-5922
▁Brasil	-5923
▁Budaya	-5924
▁Bukumu	-5925
▁Cincin	-5926
▁Daerah	-5927
▁Daftar	-5928
▁Dialah	-5929
▁Edison	-5930
▁Jenewa	-5931
▁Jutaan	-5932
▁Kadang	-5933
▁Kakiku	-5934
▁Kamera	-5935
▁Kantor	-5936
▁Kertas	-5937
▁Kukira	-5938
▁Lempar	-5939
▁Lubang	-5940
▁Mainan	-5941
▁Mataku	-5942
▁Memang	-5943
▁Miller	-5944
▁Museum	-5945
▁Nyamuk	-5946
▁Oxford	-5947
▁Pensil	-5948
▁Perang	-5949
▁Pidato	-5950
▁Ponsel	-5951
▁Potong	-5952
▁Remnya	-5953
▁Takkan	-5954
▁Tempat	-5955
▁Thomas	-5956
▁Timbal	-5957
▁Tinggi	-5958
▁Viking	-5959
▁Wanita	-5960
▁Yunani	-5961
▁adikmu	-5962
▁airnya	-5963
▁ajaran	-5964
▁amplop	-5965
▁anakmu	-5966
▁anggap	-5967
▁anting	-5968
▁asalmu	-5969
▁atasan	-5970
▁bandel	-5971
▁bangku	-5972
▁bangsa	-5973
▁bareng	-5974
▁berkas	-5975
▁berken	-5976
▁berski	-5977
▁boling	-5978
▁brosur	-5979
▁budaya	-5980
▁bukuku	-5981
▁cacing	-5982
▁campur	-5983
▁caraku	-5984
▁caramu	-5985
▁cermin	-5986
▁dayung	-5987
▁delima	-5988
▁dialah	-5989
▁diatur	-5990
▁dibuka	-5991
▁dicuci	-5992
▁diduga	-5993
▁diekse	-5994
▁dijadw	-5995
▁disana	-5996
▁disitu	-5997
▁diungk	-5998
▁dollar	-5999
▁energi	-6000
▁enggak	-6001
▁enggan	-6002
▁gajian	-6003
▁galeri	-6004
▁ganggu	-6005
▁ganjil	-6006
▁hancur	-6007
▁harimu	-6008
▁hatimu	-6009
▁hikmah	-6010
▁impian	-6011
▁jagung	-6012
▁jantan	-6013
▁jepang	-6014
▁joging	-6015
▁jutaan	-6016
▁kaleng	-6017
▁kantin	-6018
▁kausku	-6019
▁kemeja	-6020
▁kental	-6021
▁kerbau	-6022
▁kesana	-6023
▁kolong	-6024
▁koloni	-6025
▁kontes	-6026
▁kostum	-6027
▁kudaku	-6028
▁kukuku	-6029
▁lamamu	-6030
▁lembar	-6031
▁lompat	-6032
▁loteng	-6033
▁matang	-6034
▁melamb	-6035
▁melodi	-6036
▁memain	-6037
▁memuji	-6038
▁menamp	-6039
▁mencuc	-6040
▁mendek	-6041
▁mengaw	-6042
▁mengis	-6043
▁menyap	-6044
▁meraih	-6045
▁miknya	-6046
▁monyet	-6047
▁mukamu	-6048
▁nyanyi	-6049
▁nyaris	-6050
▁pagoda	-6051
▁pahami	-6052
▁parkir	-6053
▁pasien	-6054
▁pelaku	-6055
▁pianis	-6056
▁protes	-6057
▁puding	-6058
▁pusing	-6059
▁rantai	-6060
▁reaksi	-6061
▁rumpun	-6062
▁santun	-6063
▁satpam	-6064
▁sayang	-6065
▁seakan	-6066
▁sebaik	-6067
▁segala	-6068
▁sejati	-6069
▁sekuat	-6070
▁semang	-6071
▁senyum	-6072
▁sepupu	-6073
▁seumur	-6074
▁seusia	-6075
▁sirkus	-6076
▁sosial	-6077
▁suasan	-6078
▁subjek	-6079
▁sukses	-6080
▁supaya	-6081
▁swasta	-6082
▁tasnya	-6083
▁tebing	-6084
▁teknis	-6085
▁temani	-6086
▁tembok	-6087
▁tesnya	-6088
▁tipuan	-6089
▁tonton	-6090
▁tumbuh	-6091
▁uangku	-6092
▁ukulel	-6093
akjubkan	-6094
ampaknya	-6095
andalkan	-6096
butuhkan	-6097
dagangan	-6098
ejalanya	-6099
elilingi	-6100
elombang	-6101
embangan	-6102
lampunya	-6103
obaannya	-6104
osongkan	-6105
pintunya	-6106
tahankan	-6107
umbuhkan	-6108
untuhkan	-6109
untukkan	-6110
▁Akankah	-6111
▁Alkitab	-6112
▁Angeles	-6113
▁Ayahnya	-6114
▁Bagilah	-6115
▁Baiklah	-6116
▁Bawalah	-6117
▁Bermain	-6118
▁Bintang	-6119
▁Biologi	-6120
▁Bukanya	-6121
▁Bukunya	-6122
▁Cangkir	-6123
▁Datanya	-6124
▁Gerbang	-6125
▁Hidupku	-6126
▁Hindari	-6127
▁Istriku	-6128
▁Jagalah	-6129
▁Jauhkan	-6130
▁Kelinci	-6131
▁Kubilai	-6132
▁Kumbang	-6133
▁Kursimu	-6134
▁Makanya	-6135
▁Mejanya	-6136
▁Minuman	-6137
▁Nasinya	-6138
▁Pakaian	-6139
▁Penulis	-6140
▁Percaya	-6141
▁Rumahmu	-6142
▁Sebelum	-6143
▁Senapan	-6144
▁Sepuluh	-6145
▁Suamiku	-6146
▁Tangkap	-6147
▁Tekanan	-6148
▁Temukan	-6149
▁Tentara	-6150
▁Terlalu	-6151
▁Terusan	-6152
▁Tulisan	-6153
▁Umumnya	-6154
▁Waktumu	-6155
▁ahlinya	-6156
▁ambulan	-6157
▁apalagi	-6158
▁aprikot	-6159
▁artikel	-6160
▁asisten	-6161
▁badanmu	-6162
▁bajunya	-6163
▁bawakan	-6164
▁belanja	-6165
▁bencana	-6166
▁bengkok	-6167
▁berduka	-6168
▁berfoto	-6169
▁bergaul	-6170
▁berikut	-6171
▁berjudi	-6172
▁berlian	-6173
▁bersiul	-6174
▁bertiga	-6175
▁bimbang	-6176
▁depanku	-6177
▁diambil	-6178
▁dibalik	-6179
▁dibayar	-6180
▁dibuang	-6181
▁didalam	-6182
▁dididik	-6183
▁dihapus	-6184
▁diimpor	-6185
▁dikenal	-6186
▁dimasak	-6187
▁diminta	-6188
▁diretas	-6189
▁disukai	-6190
▁dongeng	-6191
▁evolusi	-6192
▁gembira	-6193
▁gerhana	-6194
▁hadapan	-6195
▁hadirin	-6196
▁hiburan	-6197
▁hubungi	-6198
▁inggris	-6199
▁jaketmu	-6200
▁janggut	-6201
▁janjimu	-6202
▁jantung	-6203
▁jarinya	-6204
▁kakakmu	-6205
▁kambing	-6206
▁kampung	-6207
▁kandang	-6208
▁kantung	-6209
▁kapalku	-6210
▁katapun	-6211
▁kawanku	-6212
▁kejutan	-6213
▁kelasku	-6214
▁keledai	-6215
▁kelulus	-6216
▁kentang	-6217
▁kenyang	-6218
▁kerasmu	-6219
▁koleksi	-6220
▁kondisi	-6221
▁kontrak	-6222
▁kreatif	-6223
▁krimnya	-6224
▁kulihat	-6225
▁kunciku	-6226
▁lamakah	-6227
▁lasagna	-6228
▁maafkan	-6229
▁mainkan	-6230
▁mamalia	-6231
▁manajer	-6232
▁meeting	-6233
▁melatih	-6234
▁meledak	-6235
▁meletus	-6236
▁melipat	-6237
▁mematok	-6238
▁membaik	-6239
▁membeku	-6240
▁memerah	-6241
▁memeras	-6242
▁memetik	-6243
▁memohon	-6244
▁menaati	-6245
▁menatap	-6246
▁menawan	-6247
▁menetap	-6248
▁menguap	-6249
▁menikam	-6250
▁menilai	-6251
▁mentega	-6252
▁menuduh	-6253
▁menyapu	-6254
▁merajut	-6255
▁mimisan	-6256
▁nasinya	-6257
▁negatif	-6258
▁ngapain	-6259
▁ngomong	-6260
▁nikmati	-6261
▁pacarmu	-6262
▁pamanku	-6263
▁pamanmu	-6264
▁pemabuk	-6265
▁pemadam	-6266
▁pemburu	-6267
▁pencuri	-6268
▁perawat	-6269
▁perokok	-6270
▁pisaumu	-6271
▁popcorn	-6272
▁pribadi	-6273
▁pukulan	-6274
▁radiomu	-6275
▁ranjang	-6276
▁realist	-6277
▁reguler	-6278
▁relatif	-6279
▁samudra	-6280
▁sebotol	-6281
▁sekeras	-6282
▁selatan	-6283
▁selusin	-6284
▁seragam	-6285
▁siangmu	-6286
▁silakan	-6287
▁spageti	-6288
▁suamiku	-6289
▁suamimu	-6290
▁suasana	-6291
▁tagihan	-6292
▁tekanan	-6293
▁terbaru	-6294
▁terkuat	-6295
▁tidurku	-6296
▁tiketku	-6297
▁tingkah	-6298
▁toleran	-6299
▁traktir	-6300
▁trompet	-6301
▁tuduhan	-6302
▁tugasmu	-6303
▁umurnya	-6304
▁wajahku	-6305
▁xilofon	-6306
ajengking	-6307
akibatkan	-6308
beraninya	-6309
elesaikan	-6310
eritahuan	-6311
ingkirkan	-6312
malukanku	-6313
pertemuan	-6314
ungkinkan	-6315
▁Anginnya	-6316
▁Bebaskan	-6317
▁Berjalan	-6318
▁Columbus	-6319
▁Cuacanya	-6320
▁Februari	-6321
▁Golongan	-6322
▁Haruskah	-6323
▁Hokkaido	-6324
▁Ingatlah	-6325
▁Jadwalku	-6326
▁Kacamata	-6327
▁Kapankah	-6328
▁Keduanya	-6329
▁Kegiatan	-6330
▁Kepalaku	-6331
▁Korannya	-6332
▁Kucingku	-6333
▁Kudengar	-6334
▁Lilinnya	-6335
▁Makanlah	-6336
▁Mandarin	-6337
▁Masuklah	-6338
▁Menangis	-6339
▁Mulailah	-6340
▁Neptunus	-6341
▁November	-6342
▁Pakailah	-6343
▁Pasangan	-6344
▁Penyakit	-6345
▁Polandia	-6346
▁Presiden	-6347
▁Pulpenku	-6348
▁Rambutku	-6349
▁Restoran	-6350
▁Sejumlah	-6351
▁Semenjak	-6352
▁Sepatuku	-6353
▁Sepatumu	-6354
▁Sepedaku	-6355
▁Sepedamu	-6356
▁Serigala	-6357
▁Setengah	-6358
▁Tanganku	-6359
▁Televisi	-6360
▁Terdapat	-6361
▁Ternyata	-6362
▁Terserah	-6363
▁Tumbuhan	-6364
▁Waktunya	-6365
▁alamatmu	-6366
▁anggapan	-6367
▁anginnya	-6368
▁angkatan	-6369
▁anjingmu	-6370
▁aplikasi	-6371
▁bagaikan	-6372
▁beranjak	-6373
▁bercukur	-6374
▁berdebat	-6375
▁berganti	-6376
▁bergeser	-6377
▁berhantu	-6378
▁berjabat	-6379
▁berjemur	-6380
▁berjuang	-6381
▁berkedip	-6382
▁berkemah	-6383
▁berlayar	-6384
▁bermuara	-6385
▁bernapas	-6386
▁berpisah	-6387
▁berputar	-6388
▁bersabar	-6389
▁bersaksi	-6390
▁bertepuk	-6391
▁bertugas	-6392
▁berutang	-6393
▁betulkan	-6394
▁bilangan	-6395
▁botolnya	-6396
▁bubungan	-6397
▁bukannya	-6398
▁bunyinya	-6399
▁cacatnya	-6400
▁campuran	-6401
▁demikian	-6402
▁depannya	-6403
▁diborgol	-6404
▁dipahami	-6405
▁diparkir	-6406
▁dipatuhi	-6407
▁dipegang	-6408
▁ditabrak	-6409
▁ditembak	-6410
▁doktermu	-6411
▁dompetku	-6412
▁geografi	-6413
▁jurnalis	-6414
▁kakeknya	-6415
▁kalender	-6416
▁kantorku	-6417
▁kegiatan	-6418
▁kehausan	-6419
▁kejadian	-6420
▁kekayaan	-6421
▁kekuatan	-6422
▁kelasnya	-6423
▁kemajuan	-6424
▁kenaikan	-6425
▁kencanmu	-6426
▁kepalaku	-6427
▁keretaku	-6428
▁kesamaan	-6429
▁kesukaan	-6430
▁kilogram	-6431
▁kritikan	-6432
▁kuncinya	-6433
▁kursinya	-6434
▁kutunggu	-6435
▁lokernya	-6436
▁malamnya	-6437
▁mandinya	-6438
▁memarahi	-6439
▁memarkir	-6440
▁memboleh	-6441
▁mencetak	-6442
▁mendarat	-6443
▁mendekat	-6444
▁mendesak	-6445
▁mengabai	-6446
▁mengayuh	-6447
▁mengecek	-6448
▁mengelap	-6449
▁mengukur	-6450
▁mengupas	-6451
▁mengusir	-6452
▁menuntut	-6453
▁menyebar	-6454
▁menyerap	-6455
▁mewarnai	-6456
▁neneknya	-6457
▁pahlawan	-6458
▁panasnya	-6459
▁pastinya	-6460
▁payungmu	-6461
▁penduduk	-6462
▁pengaman	-6463
▁pengecut	-6464
▁pengemis	-6465
▁penjelas	-6466
▁perenang	-6467
▁perginya	-6468
▁perilaku	-6469
▁perlengk	-6470
▁pianonya	-6471
▁pohonnya	-6472
▁populasi	-6473
▁proposal	-6474
▁putuskan	-6475
▁rambutku	-6476
▁romantis	-6477
▁sarannya	-6478
▁sebagian	-6479
▁sehingga	-6480
▁sembrono	-6481
▁sensitif	-6482
▁sepasang	-6483
▁sepatumu	-6484
▁sepedamu	-6485
▁sepulang	-6486
▁serangan	-6487
▁seruling	-6488
▁takutkan	-6489
▁tanahnya	-6490
▁tanpanya	-6491
▁tembikar	-6492
▁tempayan	-6493
▁terbatas	-6494
▁terbenam	-6495
▁terdalam	-6496
▁terindah	-6497
▁terkecil	-6498
▁terkesan	-6499
▁terminal	-6500
▁ternyata	-6501
▁terpaksa	-6502
▁tertular	-6503
▁terulang	-6504
▁terwujud	-6505
▁tidurlah	-6506
▁tindakan	-6507
▁tutupnya	-6508
▁urusanmu	-6509
▁walaupun	-6510
▁warnanya	-6511
angunannya	-6512
eluarkanmu	-6513
kentangnya	-6514
kusikannya	-6515
lihatannya	-6516
untunganku	-6517
▁Apartemen	-6518
▁Beginilah	-6519
▁Berondong	-6520
▁Bersihkan	-6521
▁Dikatakan	-6522
▁Esperanto	-6523
▁Garasinya	-6524
▁Informasi	-6525
▁Inggrismu	-6526
▁Janganlah	-6527
▁Jurusanmu	-6528
▁Kebetulan	-6529
▁Kemacetan	-6530
▁Kesalahan	-6531
▁Pantainya	-6532
▁Perempuan	-6533
▁Piringnya	-6534
▁Prancisku	-6535
▁Rencanamu	-6536
▁Saudaraku	-6537
▁Singapura	-6538
▁Tangannya	-6539
▁apartemen	-6540
▁astrologi	-6541
▁barangnya	-6542
▁batangnya	-6543
▁bercerita	-6544
▁berdandan	-6545
▁berhutang	-6546
▁berkemudi	-6547
▁berkencan	-6548
▁berkeping	-6549
▁berkumpul	-6550
▁bersamaan	-6551
▁bersandar	-6552
▁bersumpah	-6553
▁bersyukur	-6554
▁bicaranya	-6555
▁burungnya	-6556
▁datangnya	-6557
▁diajarkan	-6558
▁diberikan	-6559
▁diizinkan	-6560
▁dipenjara	-6561
▁diumumkan	-6562
▁finansial	-6563
▁frustrasi	-6564
▁garasinya	-6565
▁harapanmu	-6566
▁hidungnya	-6567
▁instrumen	-6568
▁jawabanmu	-6569
▁jumlahkan	-6570
▁kantongmu	-6571
▁kapasitas	-6572
▁keajaiban	-6573
▁kebetulan	-6574
▁kecanduan	-6575
▁kegaduhan	-6576
▁kehujanan	-6577
▁kejahatan	-6578
▁kelelawar	-6579
▁keluhanmu	-6580
▁kembalian	-6581
▁kenyataan	-6582
▁keributan	-6583
▁kerusakan	-6584
▁konsernya	-6585
▁kuketahui	-6586
▁lanjutkan	-6587
▁laporanku	-6588
▁melainkan	-6589
▁melanggar	-6590
▁melintasi	-6591
▁melukaimu	-6592
▁memakanmu	-6593
▁membilang	-6594
▁memelukku	-6595
▁memintamu	-6596
▁memuaskan	-6597
▁menampung	-6598
▁menasihat	-6599
▁mendingan	-6600
▁mendingin	-6601
▁mendukung	-6602
▁menerobos	-6603
▁mengagumi	-6604
▁menggaruk	-6605
▁mengimpor	-6606
▁mengunduh	-6607
▁menyambut	-6608
▁menyengat	-6609
▁menyerang	-6610
▁menyetuju	-6611
▁menyirami	-6612
▁menyontek	-6613
▁meragukan	-6614
▁mericanya	-6615
▁nampaknya	-6616
▁overdosis	-6617
▁panggilan	-6618
▁pemberani	-6619
▁penderita	-6620
▁perabotan	-6621
▁perangkat	-6622
▁perbuatan	-6623
▁perhatian	-6624
▁perhiasan	-6625
▁permadani	-6626
▁persoalan	-6627
▁pertanian	-6628
▁perubahan	-6629
▁pinjamkan	-6630
▁politikus	-6631
▁pramusaji	-6632
▁rakyatnya	-6633
▁sarangnya	-6634
▁sarapanmu	-6635
▁saudaramu	-6636
▁sederhana	-6637
▁teleponmu	-6638
▁terbaring	-6639
▁tercantik	-6640
▁tergenang	-6641
▁terobsesi	-6642
▁toiletnya	-6643
▁wortelnya	-6644
ungkinannya	-6645
▁Belajarlah	-6646
▁Bersiaplah	-6647
▁Inggrisnya	-6648
▁Mangkuknya	-6649
▁Memerlukan	-6650
▁Menjauhlah	-6651
▁Pemerintah	-6652
▁Pendapatku	-6653
▁Pengaturan	-6654
▁Pernyataan	-6655
▁Pertanyaan	-6656
▁Pertemanan	-6657
▁Sejujurnya	-6658
▁Seluruhnya	-6659
▁Skotlandia	-6660
▁Teleponnya	-6661
▁Tulisannya	-6662
▁bandaranya	-6663
▁berguncang	-6664
▁berjenggot	-6665
▁berjongkok	-6666
▁berpergian	-6667
▁beruangnya	-6668
▁dibatalkan	-6669
▁diberitahu	-6670
▁dibutuhkan	-6671
▁dieksekusi	-6672
▁dihabiskan	-6673
▁dihentikan	-6674
▁dilahirkan	-6675
▁dimengerti	-6676
▁dipisahkan	-6677
▁dirobohkan	-6678
▁disalahkan	-6679
▁dokumennya	-6680
▁dokumenter	-6681
▁elektronik	-6682
▁kacamataku	-6683
▁keadaannya	-6684
▁keberanian	-6685
▁kedinginan	-6686
▁kedokteran	-6687
▁kehormatan	-6688
▁keluargamu	-6689
▁keuntungan	-6690
▁koreksinya	-6691
▁makanannya	-6692
▁melelahkan	-6693
▁melepaskan	-6694
▁memahamiku	-6695
▁memastikan	-6696
▁membawanya	-6697
▁membenciku	-6698
▁membuatkan	-6699
▁memejamkan	-6700
▁memeluknya	-6701
▁memperoleh	-6702
▁menantikan	-6703
▁menemanimu	-6704
▁mengadopsi	-6705
▁mengajukan	-6706
▁mengakhiri	-6707
▁menghadapi	-6708
▁menghalang	-6709
▁mengiringi	-6710
▁mengurangi	-6711
▁menteganya	-6712
▁menuangkan	-6713
▁menyatakan	-6714
▁menyelamat	-6715
▁menyukaiku	-6716
▁merekomend	-6717
▁meremehkan	-6718
▁merenovasi	-6719
▁meyakinkan	-6720
▁pegunungan	-6721
▁penampilan	-6722
▁pendidikan	-6723
▁perdamaian	-6724
▁peringatan	-6725
▁pikirannya	-6726
▁ranjangnya	-6727
▁sejujurnya	-6728
▁selesaikan	-6729
▁seperempat	-6730
▁setidaknya	-6731
▁stasiunnya	-6732
▁suasananya	-6733
▁tagihannya	-6734
▁tergeletak	-6735
▁terowongan	-6736
▁tersandung	-6737
▁tersangkut	-6738
▁vegetarian	-6739
▁Beritahukan	-6740
▁Berselancar	-6741
▁Komputernya	-6742
▁Mataharinya	-6743
▁Membosankan	-6744
▁Mengagumkan	-6745
▁Penerbangan	-6746
▁Televisinya	-6747
▁Terjemahkan	-6748
▁berkeliling	-6749
▁berkeringat	-6750
▁berolahraga	-6751
▁bersemangat	-6752
▁dijadwalkan	-6753
▁dikelilingi	-6754
▁dipengaruhi	-6755
▁diruntuhkan	-6756
▁diungkapkan	-6757
▁hubungannya	-6758
▁kemampuanku	-6759
▁keponakanku	-6760
▁kesalahanmu	-6761
▁kesepakatan	-6762
▁memaafkanmu	-6763
▁membatalkan	-6764
▁membiasakan	-6765
▁membisikkan	-6766
▁memproduksi	-6767
▁menakjubkan	-6768
▁menembakkan	-6769
▁mengecilkan	-6770
▁mengeliling	-6771
▁mengeluhkan	-6772
▁menggelikan	-6773
▁menghindari	-6774
▁menghormati	-6775
▁mengingatmu	-6776
▁mengirimiku	-6777
▁mengizinkan	-6778
▁mengonsumsi	-6779
▁mengurusnya	-6780
▁menikahinya	-6781
▁menumbuhkan	-6782
▁menyakitkan	-6783
▁menyediakan	-6784
▁menyedihkan	-6785
▁menyelidiki	-6786
▁menyemangat	-6787
▁pelajarilah	-6788
▁pembicaraan	-6789
▁pendengaran	-6790
▁penerbangan	-6791
▁pengeluaran	-6792
▁perilakunya	-6793
▁perkataanmu	-6794
▁perlihatkan	-6795
▁punggungnya	-6796
▁terjemahkan	-6797
▁Pekerjaannya	-6798
▁Percobaannya	-6799
▁Perekonomian	-6800
▁bergelombang	-6801
▁berselingkuh	-6802
▁dilaksanakan	-6803
▁dipermalukan	-6804
▁ditinggalkan	-6805
▁informasinya	-6806
▁kelahirannya	-6807
▁melindungimu	-6808
▁memainkannya	-6809
▁memanggilnya	-6810
▁membahayakan	-6811
▁membawakanku	-6812
▁membelikanmu	-6813
▁memercayaiku	-6814
▁memercayaimu	-6815
▁memperlambat	-6816
▁memungkinkan	-6817
▁menceritakan	-6818
▁meneleponnya	-6819
▁menemukannya	-6820
▁menerbangkan	-6821
▁mengambilnya	-6822
▁mengandalkan	-6823
▁menggantikan	-6824
▁mengharapkan	-6825
▁mengingatkan	-6826
▁mengosongkan	-6827
▁mengundangku	-6828
▁menyadarinya	-6829
▁menyentuhnya	-6830
▁menyimpannya	-6831
▁merasakannya	-6832
▁meremehkanku	-6833
▁merencanakan	-6834
▁merindukanmu	-6835
▁perbedaannya	-6836
▁perkembangan	-6837
▁pertanyaanmu	-6838
▁antusiasmenya	-6839
▁diperuntukkan	-6840
▁keberuntungan	-6841
▁kuberitahukan	-6842
▁membelikannya	-6843
▁meminjamkanmu	-6844
▁memperlakukan	-6845
▁mempermainkan	-6846
▁mempersiapkan	-6847
▁mengakibatkan	-6848
▁menghilangkan	-6849
▁mengunjungiku	-6850
▁menunjukkanku	-6851
▁pemberhentian	-6852
▁pernikahannya	-6853
▁Pembangunannya	-6854
▁ditandatangani	-6855
▁kemerdekaannya	-6856
▁mengeluarkanmu	-6857
▁menghiraukanku	-6858
▁menunjukkannya	-6859
▁menyarankannya	-6860
▁perlengkapanmu	-6861
▁mempermalukanku	-6862
▁mengandalkannya	-6863
▁permasalahannya	-6864
!?	-6865
"?	-6866
'.	-6867
).	-6868
+.	-6869
-2	-6870
-6	-6871
0-	-6872
1.	-6873
10	-6874
12	-6875
22	-6876
27	-6877
28	-6878
3!	-6879
50	-6880
9%	-6881
AS	-6882
BI	-6883
In	-6884
Je	-6885
LS	-6886
NN	-6887
QR	-6888
SG	-6889
SR	-6890
Sc	-6891
ch	-6892
ck	-6893
di	-6894
dn	-6895
ex	-6896
ey	-6897
ha	-6898
he	-6899
!"	-6900
OW	-6901
co	-6902
hm	-6903
ho	-6904
hw	-6905
hy	-6906
ij	-6907
ko	-6908
lh	-6909
lt	-6910
nt	-6911
oj	-6912
ou	-6913
pt	-6914
re	-6915
ry	-6916
se	-6917
so	-6918
sy	-6919
wi	-6920
wo	-6921
ye	-6922
ên	-6923
▁,	-6924
▁.	-6925
30,	-6926
Iya	-6927
Kar	-6928
Kat	-6929
aci	-6930
ahe	-6931
als	-6932
amm	-6933
any	-6934
apk	-6935
arw	-6936
ate	-6937
avy	-6938
bar	-6939
bku	-6940
cer	-6941
der	-6942
eba	-6943
een	-6944
elm	-6945
emi	-6946
fet	-6947
fku	-6948
gam	-6949
gap	-6950
gar	-6951
gia	-6952
gin	-6953
giv	-6954
gus	-6955
hch	-6956
hoa	-6957
hyt	-6958
iak	-6959
iar	-6960
iau	-6961
iet	-6962
ine	-6963
ink	-6964
ips	-6965
itt	-6966
iun	-6967
jik	-6968
kam	-6969
kep	-6970
kul	-6971
kup	-6972
kur	-6973
lee	-6974
lem	-6975
lin	-6976
lit	-6977
lob	-6978
low	-6979
mem	-6980
mit	-6981
nam	-6982
nod	-6983
oid	-6984
oke	-6985
osa	-6986
oti	-6987
ouT	-6988
ped	-6989
ram	-6990
raz	-6991
rid	-6992
sem	-6993
son	-6994
sun	-6995
tih	-6996
tin	-6997
tis	-6998
tre	-6999
apu	-7000
ash	-7001
asl	-7002
bel	-7003
eas	-7004
ela	-7005
ida	-7006
lor	-7007
mid	-7008
tuj	-7009
ual	-7010
uat	-7011
ubi	-7012
uin	-7013
uno	-7014
vei	-7015
vis	-7016
yal	-7017
yat	-7018
yaw	-7019
zel	-7020
▁15	-7021
▁2,	-7022
▁32	-7023
▁35	-7024
▁80	-7025
▁82	-7026
▁AS	-7027
▁Ah	-7028
▁Hi	-7029
▁MP	-7030
▁Mi	-7031
▁Pi	-7032
▁TK	-7033
▁Tr	-7034
▁Tw	-7035
▁UN	-7036
▁cr	-7037
▁dw	-7038
▁el	-7039
▁he	-7040
▁ho	-7041
▁ik	-7042
▁kh	-7043
▁mn	-7044
▁ps	-7045
▁sk	-7046
▁st	-7047
▁ta	-7048
▁tv	-7049
▁us	-7050
Scri	-7051
adak	-7052
adat	-7053
adin	-7054
aduk	-7055
agus	-7056
akal	-7057
alai	-7058
amas	-7059
anan	-7060
angs	-7061
apah	-7062
apar	-7063
apua	-7064
arak	-7065
aras	-7066
ardo	-7067
arum	-7068
asti	-7069
atar	-7070
ater	-7071
atik	-7072
atin	-7073
atut	-7074
awah	-7075
awin	-7076
ayap	-7077
ayat	-7078
beri	-7079
bola	-7080
cang	-7081
cont	-7082
crab	-7083
dang	-7084
diri	-7085
ecus	-7086
eduh	-7087
egar	-7088
eguh	-7089
ekik	-7090
ekku	-7091
ekul	-7092
elap	-7093
eleh	-7094
elen	-7095
elit	-7096
elus	-7097
emen	-7098
emok	-7099
-21	-7100
ail	-7101
cuc	-7102
iup	-7103
sis	-7104
▁8:	-7105
▁KI	-7106
▁Op	-7107
▁lu	-7108
acan	-7109
aing	-7110
akui	-7111
amps	-7112
enak	-7113
ence	-7114
ener	-7115
enun	-7116
enus	-7117
eral	-7118
eren	-7119
esku	-7120
etin	-7121
exas	-7122
gasi	-7123
hami	-7124
heit	-7125
idah	-7126
idol	-7127
ikin	-7128
ilir	-7129
ilit	-7130
ilki	-7131
iman	-7132
inap	-7133
ipta	-7134
irim	-7135
itek	-7136
itur	-7137
jang	-7138
kuri	-7139
lahi	-7140
ling	-7141
lues	-7142
maaf	-7143
mabu	-7144
mbol	-7145
memb	-7146
ohid	-7147
opti	-7148
orak	-7149
osil	-7150
osmu	-7151
osok	-7152
otal	-7153
otek	-7154
otmu	-7155
otok	-7156
pasi	-7157
peng	-7158
pisa	-7159
pong	-7160
samp	-7161
sapi	-7162
simp	-7163
sing	-7164
sius	-7165
taku	-7166
talm	-7167
uaan	-7168
ucut	-7169
udut	-7170
uksi	-7171
umus	-7172
util	-7173
utur	-7174
utut	-7175
veri	-7176
wang	-7177
yama	-7178
▁16.	-7179
▁187	-7180
▁212	-7181
▁Bar	-7182
▁Bir	-7183
▁Dag	-7184
▁Emp	-7185
▁Gak	-7186
▁Gal	-7187
▁Gue	-7188
▁Hil	-7189
▁Hit	-7190
▁Ide	-7191
▁Jav	-7192
▁Kac	-7193
▁Kek	-7194
▁Kim	-7195
▁Kok	-7196
▁Kru	-7197
▁Lum	-7198
▁Muh	-7199
Ada	-7200
bit	-7201
cip	-7202
his	-7203
hur	-7204
iay	-7205
ile	-7206
say	-7207
yik	-7208
▁24	-7209
▁ir	-7210
cari	-7211
elmu	-7212
ewaw	-7213
hurt	-7214
ihak	-7215
ihal	-7216
inis	-7217
irus	-7218
isis	-7219
lemp	-7220
onot	-7221
pnya	-7222
samu	-7223
tage	-7224
tamu	-7225
unis	-7226
▁Bau	-7227
▁Nel	-7228
▁Nug	-7229
▁Oak	-7230
▁Pil	-7231
▁Rah	-7232
▁Reg	-7233
▁San	-7234
▁Sis	-7235
▁Sur	-7236
▁THT	-7237
▁Tam	-7238
▁Tap	-7239
▁Wow	-7240
▁asa	-7241
▁bak	-7242
▁bap	-7243
▁beg	-7244
▁bek	-7245
▁bid	-7246
▁bor	-7247
▁bow	-7248
▁cam	-7249
▁cem	-7250
▁cur	-7251
▁iya	-7252
▁jad	-7253
▁jin	-7254
▁kuc	-7255
▁lab	-7256
▁lak	-7257
▁mad	-7258
▁mor	-7259
▁mul	-7260
▁nan	-7261
▁nel	-7262
▁pac	-7263
▁pid	-7264
▁pir	-7265
▁rad	-7266
▁ris	-7267
▁sip	-7268
▁sor	-7269
▁sta	-7270
▁stu	-7271
▁tin	-7272
▁tub	-7273
▁tul	-7274
▁tup	-7275
▁van	-7276
▁war	-7277
▁yak	-7278
Boleh	-7279
adaan	-7280
adaku	-7281
ading	-7282
adnya	-7283
akian	-7284
akiti	-7285
aktif	-7286
alamu	-7287
alaya	-7288
alian	-7289
ambur	-7290
amkan	-7291
anama	-7292
angis	-7293
apaki	-7294
aptop	-7295
aramu	-7296
ariat	-7297
arimu	-7298
atimu	-7299
300	-7300
Dia	-7301
ite	-7302
mon	-7303
pes	-7304
til	-7305
uit	-7306
▁Ih	-7307
▁ot	-7308
:30,	-7309
agip	-7310
ario	-7311
itis	-7312
jari	-7313
kuit	-7314
vari	-7315
▁Dal	-7316
▁Dis	-7317
▁Mal	-7318
▁Mis	-7319
▁bil	-7320
▁kus	-7321
▁raj	-7322
▁sia	-7323
alimu	-7324
atkan	-7325
aukan	-7326
aungu	-7327
awaii	-7328
bujuk	-7329
dalam	-7330
derak	-7331
edera	-7332
ekuen	-7333
emani	-7334
embok	-7335
empes	-7336
engmu	-7337
enguk	-7338
ening	-7339
ental	-7340
enyap	-7341
epati	-7342
epatu	-7343
epnya	-7344
epper	-7345
erius	-7346
ernya	-7347
ihnya	-7348
ikita	-7349
inaku	-7350
indai	-7351
ingal	-7352
intar	-7353
iolin	-7354
irimu	-7355
isaku	-7356
istik	-7357
iting	-7358
iuner	-7359
kanak	-7360
kawan	-7361
keped	-7362
ksgiv	-7363
kulum	-7364
meter	-7365
nakan	-7366
obong	-7367
occer	-7368
olden	-7369
ontok	-7370
oreng	-7371
orkan	-7372
otaan	-7373
otamu	-7374
pohon	-7375
sakan	-7376
sisco	-7377
tanda	-7378
tares	-7379
tiara	-7380
tuaku	-7381
tuamu	-7382
tuasi	-7383
tujuh	-7384
ublik	-7385
ugian	-7386
uinea	-7387
ukaan	-7388
ulaan	-7389
ulasi	-7390
umini	-7391
umpit	-7392
unaan	-7393
uncak	-7394
uncit	-7395
ungut	-7396
untan	-7397
urian	-7398
uskan	-7399
get	-7400
jai	-7401
red	-7402
zof	-7403
▁70	-7404
▁Ij	-7405
emil	-7406
ihir	-7407
ilas	-7408
kahi	-7409
omos	-7410
oris	-7411
ulur	-7412
usul	-7413
▁Bad	-7414
▁Bat	-7415
▁Buk	-7416
▁Loe	-7417
▁Tai	-7418
▁buj	-7419
▁hek	-7420
▁por	-7421
anget	-7422
ekkan	-7423
jaiku	-7424
murah	-7425
ukupi	-7426
ulnya	-7427
vinya	-7428
yarat	-7429
▁16."	-7430
▁8:10	-7431
▁Akun	-7432
▁Ayam	-7433
▁Bant	-7434
▁Burj	-7435
▁Daun	-7436
▁Flor	-7437
▁Geor	-7438
▁Ikeb	-7439
▁Iker	-7440
▁Imut	-7441
▁Kamp	-7442
▁Kata	-7443
▁Kauk	-7444
▁Koiz	-7445
▁Kors	-7446
▁Kuku	-7447
▁Leon	-7448
▁Mama	-7449
▁Mixi	-7450
▁Nort	-7451
▁PRku	-7452
▁Paku	-7453
▁Park	-7454
▁Peja	-7455
▁Pena	-7456
▁Perj	-7457
▁Perm	-7458
▁Rupa	-7459
▁Rusa	-7460
▁Sang	-7461
▁Sapi	-7462
▁Sial	-7463
▁Sini	-7464
▁Skor	-7465
▁Taut	-7466
▁Temp	-7467
▁Tips	-7468
▁Ulat	-7469
▁Verm	-7470
▁Wash	-7471
▁abad	-7472
▁adat	-7473
▁akui	-7474
▁alat	-7475
▁alih	-7476
▁amat	-7477
▁baja	-7478
▁bata	-7479
▁baya	-7480
▁bery	-7481
▁biay	-7482
▁blog	-7483
▁blok	-7484
▁cemb	-7485
▁cuti	-7486
▁dana	-7487
▁diet	-7488
▁ditu	-7489
▁duda	-7490
▁etis	-7491
▁fant	-7492
▁gaun	-7493
▁geng	-7494
▁giat	-7495
▁guna	-7496
▁hamp	-7497
▁helm	-7498
▁hidr	-7499
des	-7500
lyn	-7501
tib	-7502
agan	-7503
ebel	-7504
esin	-7505
ibuk	-7506
jana	-7507
kuta	-7508
muti	-7509
udid	-7510
▁194	-7511
▁ALS	-7512
▁Des	-7513
▁beb	-7514
▁dud	-7515
▁rap	-7516
Hanya	-7517
alifa	-7518
amana	-7519
anyam	-7520
birmu	-7521
desus	-7522
idung	-7523
janya	-7524
mesin	-7525
udung	-7526
▁Deny	-7527
▁Lain	-7528
▁cina	-7529
▁isti	-7530
▁jeli	-7531
▁kaku	-7532
▁kala	-7533
▁kamp	-7534
▁kari	-7535
▁katu	-7536
▁keji	-7537
▁koma	-7538
▁kuil	-7539
▁laci	-7540
▁laga	-7541
▁lara	-7542
▁long	-7543
▁mara	-7544
▁memf	-7545
▁mene	-7546
▁mimp	-7547
▁ming	-7548
▁mini	-7549
▁nadi	-7550
▁ngga	-7551
▁niat	-7552
▁oksi	-7553
▁ongk	-7554
▁oran	-7555
▁pacu	-7556
▁perj	-7557
▁pink	-7558
▁pita	-7559
▁puar	-7560
▁punk	-7561
▁purn	-7562
▁remb	-7563
▁rent	-7564
▁sand	-7565
▁sari	-7566
▁seru	-7567
▁setr	-7568
▁sisa	-7569
▁tato	-7570
▁teri	-7571
Kataku	-7572
Tolong	-7573
abatan	-7574
acalah	-7575
ahawan	-7576
ailand	-7577
alatan	-7578
alator	-7579
amakan	-7580
amaran	-7581
ambrid	-7582
amunia	-7583
angkak	-7584
aninya	-7585
apalan	-7586
argaan	-7587
aritas	-7588
arnasi	-7589
artisi	-7590
atawan	-7591
atoeba	-7592
awatan	-7593
ayakya	-7594
ayaran	-7595
bahasa	-7596
batnya	-7597
berapa	-7598
berkat	-7599
epi	-7600
oln	-7601
▁ol	-7602
ejar	-7603
epak	-7604
epan	-7605
etal	-7606
etku	-7607
rhyt	-7608
▁Cel	-7609
▁Mol	-7610
▁Pia	-7611
▁Tes	-7612
▁dok	-7613
Cepat	-7614
aScri	-7615
emuka	-7616
enbur	-7617
nakah	-7618
ongku	-7619
uduki	-7620
usius	-7621
▁Darw	-7622
▁Enam	-7623
▁Kons	-7624
▁Memu	-7625
▁Muka	-7626
▁Suka	-7627
▁Tali	-7628
▁ahli	-7629
▁akun	-7630
▁cont	-7631
▁goda	-7632
▁kasm	-7633
▁kuad	-7634
▁unik	-7635
anakah	-7636
apatan	-7637
cayaan	-7638
dengar	-7639
ebihan	-7640
enburg	-7641
endela	-7642
epakat	-7643
eralah	-7644
eratan	-7645
erawat	-7646
estern	-7647
ewahan	-7648
gainya	-7649
giling	-7650
hambat	-7651
hattan	-7652
incoln	-7653
ingaku	-7654
ington	-7655
inolog	-7656
irakan	-7657
iranya	-7658
irukan	-7659
itarku	-7660
kontak	-7661
kutnya	-7662
lankan	-7663
liknya	-7664
loskan	-7665
matika	-7666
mbahan	-7667
memalu	-7668
odohan	-7669
olakan	-7670
ordion	-7671
orinya	-7672
orokan	-7673
peroni	-7674
preter	-7675
renang	-7676
rhythm	-7677
sering	-7678
sialan	-7679
sianya	-7680
takdir	-7681
tempat	-7682
tiakmu	-7683
tonton	-7684
tutupi	-7685
ujinya	-7686
uminya	-7687
ungkuk	-7688
urutku	-7689
usukan	-7690
ventar	-7691
▁1945.	-7692
▁1992.	-7693
▁5.000	-7694
▁6:30,	-7695
▁Alang	-7696
▁Angka	-7697
▁Bosku	-7698
▁Demok	-7699
buc	-7700
▁Up	-7701
alut	-7702
asok	-7703
batu	-7704
efin	-7705
gong	-7706
ited	-7707
mbar	-7708
nama	-7709
pagi	-7710
vasi	-7711
yong	-7712
▁Dok	-7713
▁Fah	-7714
▁Red	-7715
▁bui	-7716
▁rob	-7717
akter	-7718
araga	-7719
bucks	-7720
imist	-7721
isasi	-7722
umpai	-7723
undup	-7724
▁Jeng	-7725
▁Masa	-7726
▁Padi	-7727
▁Pagi	-7728
▁Palu	-7729
▁Pitt	-7730
▁bete	-7731
▁diag	-7732
▁gamb	-7733
▁palu	-7734
▁ratu	-7735
▁rend	-7736
apasan	-7737
asokku	-7738
elasku	-7739
inggis	-7740
lambat	-7741
rivasi	-7742
sangat	-7743
▁Diper	-7744
▁Esnya	-7745
▁Gempa	-7746
▁Hamps	-7747
▁Helen	-7748
▁Hutan	-7749
▁Jauhi	-7750
▁Kamus	-7751
▁Kartu	-7752
▁Kejuj	-7753
▁Khrus	-7754
▁Leher	-7755
▁Lipat	-7756
▁Marah	-7757
▁Maret	-7758
▁Maria	-7759
▁Marry	-7760
▁Mawar	-7761
▁Media	-7762
▁Nomor	-7763
▁Pasir	-7764
▁Pemak	-7765
▁Piala	-7766
▁Pihak	-7767
▁Pokok	-7768
▁Pungg	-7769
▁Punya	-7770
▁Putih	-7771
▁Sikap	-7772
▁Siswa	-7773
▁Sumat	-7774
▁TVnya	-7775
▁Tanya	-7776
▁Tasku	-7777
▁Tekuk	-7778
▁Ujung	-7779
▁Venus	-7780
▁Wajah	-7781
▁akses	-7782
▁apaan	-7783
▁asyik	-7784
▁bahan	-7785
▁baris	-7786
▁batal	-7787
▁becus	-7788
▁bener	-7789
▁beral	-7790
▁berot	-7791
▁berti	-7792
▁beruk	-7793
▁betah	-7794
▁bikin	-7795
▁blong	-7796
▁bosku	-7797
▁brand	-7798
▁buang	-7799
edi	-7800
hof	-7801
rut	-7802
okie	-7803
osed	-7804
peri	-7805
tawa	-7806
ukio	-7807
utmu	-7808
▁Kut	-7809
▁Suh	-7810
▁ima	-7811
▁nih	-7812
▁nol	-7813
abung	-7814
binya	-7815
inyak	-7816
ookie	-7817
rambu	-7818
utkan	-7819
▁Bibi	-7820
▁Seli	-7821
▁ceri	-7822
▁jahe	-7823
▁nada	-7824
▁pula	-7825
adapan	-7826
isahan	-7827
isilin	-7828
sepatu	-7829
soccer	-7830
▁2003.	-7831
▁Balai	-7832
▁Gubuk	-7833
▁Namun	-7834
▁Pikir	-7835
▁Yukio	-7836
▁capai	-7837
▁cuman	-7838
▁dadar	-7839
▁dicat	-7840
▁diinv	-7841
▁dijeb	-7842
▁dikar	-7843
▁dikec	-7844
▁dinas	-7845
▁disem	-7846
▁ditaw	-7847
▁diteg	-7848
▁evaku	-7849
▁fabel	-7850
▁filsu	-7851
▁final	-7852
▁gegar	-7853
▁gerah	-7854
▁hakim	-7855
▁henti	-7856
▁hiper	-7857
▁hoaks	-7858
▁idemu	-7859
▁ilahi	-7860
▁jurus	-7861
▁kadal	-7862
▁karun	-7863
▁keasl	-7864
▁kebal	-7865
▁kedai	-7866
▁kejuj	-7867
▁keman	-7868
▁kemau	-7869
▁kemej	-7870
▁kentu	-7871
▁keper	-7872
▁kepun	-7873
▁kesan	-7874
▁keseh	-7875
▁ketat	-7876
▁ketua	-7877
▁kilat	-7878
▁kubus	-7879
▁kuper	-7880
▁lalat	-7881
▁lapis	-7882
▁lutut	-7883
▁mahir	-7884
▁makar	-7885
▁malan	-7886
▁manja	-7887
▁marga	-7888
▁masak	-7889
▁mebel	-7890
▁memij	-7891
▁menin	-7892
▁merek	-7893
▁meres	-7894
▁merob	-7895
▁mewah	-7896
▁mulus	-7897
▁nafas	-7898
▁nyeri	-7899
bab	-7900
271.	-7901
abul	-7902
gent	-7903
hent	-7904
ogok	-7905
uput	-7906
wood	-7907
▁Kag	-7908
▁Keh	-7909
▁Taj	-7910
▁jaj	-7911
alent	-7912
amati	-7913
atiin	-7914
embik	-7915
isius	-7916
a	-7917
▁	-7918
n	-7919
i	-7920
e	-7921
u	-7922
k	-7923
m	-7924
t	-7925
r	-7926
g	-7927
s	-7928
d	-7929
.	-7930
l	-7931
b	-7932
p	-7933
h	-7934
y	-7935
o	-7936
A	-7937
T	-7938
j	-7939
?	-7940
c	-7941
K	-7942
S	-7943
M	-7944
D	-7945
w	-7946
B	-7947
-	-7948
I	-7949
,	-7950
P	-7951
J	-7952
f	-7953
!	-7954
H	-7955
R	-7956
L	-7957
v	-7958
"	-7959
0	-7960
N	-7961
O	-7962
C	-7963
G	-7964
2	-7965
1	-7966
U	-7967
3	-7968
z	-7969
E	-7970
Y	-7971
F	-7972
W	-7973
V	-7974
8	-7975
9	-7976
5	-7977
6	-7978
:	-7979
4	-7980
x	-7981
'	-7982
7	-7983
/	-7984
$	-7985
Z	-7986
%	-7987
(	-7988
)	-7989
&	-7990
+	-7991
;	-7992
Q	-7993
~	-7994
°	-7995
ê	-7996
